/**
  ******************************************************************************
  * @file    speech_model_data_params.c
  * @author  AST Embedded Analytics Research Platform
  * @date    Thu May 16 22:39:05 2024
  * @brief   AI Tool Automatic Code Generator for Embedded NN computing
  ******************************************************************************
  * Copyright (c) 2024 STMicroelectronics.
  * All rights reserved.
  *
  * This software is licensed under terms that can be found in the LICENSE file
  * in the root directory of this software component.
  * If no LICENSE file comes with this software, it is provided AS-IS.
  ******************************************************************************
  */

#include "speech_model_data_params.h"


/**  Activations Section  ****************************************************/
ai_handle g_speech_model_activations_table[1 + 2] = {
  AI_HANDLE_PTR(AI_MAGIC_MARKER),
  AI_HANDLE_PTR(NULL),
  AI_HANDLE_PTR(AI_MAGIC_MARKER),
};




/**  Weights Section  ********************************************************/
AI_ALIGNED(32)
const ai_u64 s_speech_model_weights_array_u64[22111] = {
  0x3ee86ba93f8c9225U, 0xbe26c15abe281146U, 0x3d6e31df3f4d92d2U, 0x3ec626153f22725fU,
  0xbe1e5469bdb17d71U, 0xbded99d1bcaad4f6U, 0xbe4cd0183b9d7211U, 0x3e236d253e4d295cU,
  0x3d9e3c3b3b5e5876U, 0xbe05ca703ce2453eU, 0x3d897b633cbd55b4U, 0xbde5409f3cc6c4e1U,
  0x3e1cb8d6bddef7b5U, 0x3e65922e3bc2ccaaU, 0x3d1f33733e278459U, 0xbdb1033cbe761c21U,
  0xbcf3bf54bc1a2010U, 0xbc295a1dbcb15a72U, 0xbe38825c3d837a68U, 0xbe9c8e153e763473U,
  0x3e9bbed1be35da91U, 0x3d938cfd3d752aa9U, 0x3e1d9e60bcf39542U, 0x3dfdfb7abf158746U,
  0x3e3eb402be4e1a33U, 0x3e15190cbdc8d427U, 0x3e44b546be6f057cU, 0xbc8e299dbe59cdccU,
  0x3e3ccc91be174f17U, 0xbe198a0dbdbef853U, 0x3d45b2983d945be1U, 0xbde73befbee50c7bU,
  0x3d6ec5c93cb3044bU, 0x3d4c70c2be2f83ceU, 0x3bcd88b8bda685b7U, 0xbdc8aa443d8e80afU,
  0xbd9b344dbe52cfabU, 0x3de9d760be2c92d0U, 0x3af14905bd93be09U, 0x3db8562a3ebec86aU,
  0x3cf24e8e3c9dcf4bU, 0xbd8fbd0a3e87dcbaU, 0xbdf9bb77bd909347U, 0x3e1650abbe608ceeU,
  0x3dc6754bbe6fd76aU, 0x3c8a31aa3c76117bU, 0xbdb4f2d8bd3b3b0cU, 0x3d7b73063dd8a57fU,
  0xbdbca7c7bd555ba4U, 0xbdaaa5893d2e853bU, 0x3dd99429beba9344U, 0xbe219b773d040b7dU,
  0xbe1e98f93e07ea24U, 0xbde15dedbcea4086U, 0x3df42d72bd7b3beeU, 0xbd242164be060eb7U,
  0x3e0946aebb7d7249U, 0xbd97c17c3d82d244U, 0x3ccd726a3d883257U, 0xbc8f5558bf07f733U,
  0x3cd08e44be841d16U, 0x3e3c36bb3e14b2e9U, 0xbe4376f33da05062U, 0x3cc65bf1bec18ae3U,
  0xbe4cf1743d3913d5U, 0x3e28777a3e1c3bdfU, 0xbe06c5c8bdd83e25U, 0xbc68bfdc3e4f94abU,
  0xbc0aa5a33d0d8a01U, 0xbe4291dabda59fa8U, 0x3e2ef4c2bcb471c0U, 0x3dbf6269bd80c37eU,
  0x3e18207e3e0eb9a7U, 0x3d07c454bdc0c534U, 0x3dbf3c2fbede3586U, 0xbe5c0141be9d8583U,
  0x3e3dcdffbc716527U, 0x3e36a231bdb8eb0cU, 0xbd520e45bde4d646U, 0x3e067cc2be1fa5d7U,
  0xbd9dae7a3b17def4U, 0xbe01e9243d1edb62U, 0x3e8ba70bbe1a461fU, 0x3d7df74c3e1f015eU,
  0xbe8da39bbcfd55d2U, 0xbd9d2ae93d7771caU, 0xbea118083c94413dU, 0xbd098862be0a3b39U,
  0x3d59525dbda87dabU, 0xbd58f4483d7ae3efU, 0xbe199bc33c58a174U, 0xbceddd71be417a23U,
  0xbe2fb234bdac096bU, 0xbce2fbff3e0132eaU, 0xbce52f0dbcbfbe21U, 0xbcb79e363cb3c119U,
  0xbe9edfd9be8175d2U, 0xbdb6f6063dc163bfU, 0xbec4b0b5be0f8360U, 0x3ead47873dd084f9U,
  0x3d9a4dbd3d1c6109U, 0xbd1c31a33e2b127fU, 0x3d87eddebdc30056U, 0xbe3c44c83dddfc3cU,
  0x3ddbcc1a3d95f26bU, 0x3e1238bf3dcc90ebU, 0x3ceb303d3e005cf6U, 0xbdd8256a3d82cd5aU,
  0x3cb661a13e0cd3d3U, 0x3e5482db3e1c1208U, 0xbe732ad5bd15d1c9U, 0x3d50f364be1adf62U,
  0xbd13c4933d84e279U, 0x3e4112df3cb6c007U, 0x3d5dbfaebeed1fdbU, 0xbe9262463db9123fU,
  0xbd1a93c1bdeb5775U, 0xbc70cfb93c726ae6U, 0xbd885859be3f387eU, 0xbeb5acfcbe0283f9U,
  0xbe88b1f5be11efd8U, 0xbdc01e4bbd4769d9U, 0xbd3f38bfbde6d4f1U, 0xbefcff15bda9a014U,
  0x3d6df904be29f2beU, 0x3ec282f03e5a453dU, 0x3e9abeb33dc9c9c4U, 0x3ddd0a7abe3618f5U,
  0x3d945abdbd65641bU, 0x3e36e4cdbdc751a1U, 0xbde36f19bdeab542U, 0xbced7ef73e29fcceU,
  0xbe79d0a5beb42575U, 0xbe7e78e03e4c2cd1U, 0x3d962bfcbeeacad2U, 0xbeff344e3eaa987bU,
  0x3df09e703e85ab66U, 0xbcd400c43c92481dU, 0x3e2890ccbe2a5de8U, 0xbeaec5463d49cc72U,
  0xbcb5ab85bd56ecfeU, 0xbd83a85dbd984beaU, 0x3d8335453d3a1af3U, 0xbe0138c1bdc7a38eU,
  0x3cb69d67bcee70d8U, 0x3e2ab0da3e8a6335U, 0xbbfe7e13bd9ceed2U, 0x3e1addd73d1978b1U,
  0x3d2f4b1d3e83163dU, 0x3d1391c3be542e26U, 0x3cf21e9cbd77a663U, 0xbe60e179bdabd1a9U,
  0xbe736a0f3dab4d71U, 0xbea74f3f3d6c9ba2U, 0x3b2d7cb4bbb5228cU, 0xbdba68af3dc50b57U,
  0xbe19165dbd1cce16U, 0x3d81511bbe2220b3U, 0xbe54182b3e7ce2a0U, 0x3e19c9f23dfc7dc1U,
  0x3e3e83033b3f57e7U, 0x3e8f3e0dbd033343U, 0x3e59329abdccf1acU, 0xbdc768af3e2f59baU,
  0xbd4fee7cbcb3d14eU, 0x3ce704573d859119U, 0xbd4e695bbdefd5d1U, 0xbe3005f5be2165a7U,
  0xbd6a62cabe94fed5U, 0xbf0c45893ddedcc3U, 0xbd959a883db9ea3dU, 0x3d00172dbd6c5759U,
  0xbd6e21903e3e7a94U, 0x3e41fdb9be2e1dacU, 0x3e089ac83dce982dU, 0xbd34fd1bbbbde016U,
  0xbda370c9be0ee113U, 0xbd696a73bc5da63bU, 0x3e83b6193d789170U, 0xbd84828dbdd15cd8U,
  0x3b850ff43e04dd0cU, 0x3ce1bef4be9aed11U, 0xbe42f1743d082250U, 0x3d99755dbd3b97f6U,
  0x3dcd81b1bddef28dU, 0x3bedda59bcd2e26dU, 0xbc8f96c3bd6fefb5U, 0xbc88f9f3be1faebbU,
  0x3e0de1e93b0330c0U, 0x3d6964d9bd76b975U, 0x3e32b3d33ce61e44U, 0x3d98c8aebe38ae22U,
  0xbaf1bff73d46240bU, 0x3df13ee1be174c40U, 0xbb0adbc3be494009U, 0xbd9704743dd66d00U,
  0x3d2f69f83e41edbfU, 0xbc65f78ebd871b71U, 0x3dc6a8ccbe3e446bU, 0x3df76081bc9a1aecU,
  0x3a8017ba3ccc3180U, 0x3d9743bfbe2ad590U, 0x3dc28e89bd92afb1U, 0xbddc32febd3d553cU,
  0xbd8890f8bdc1a619U, 0xbc932382be1133a3U, 0xbe3fa298bdab9258U, 0x3d6b62083da2ca10U,
  0x3e475793bc191f99U, 0x3d7c9f40be0843b2U, 0x3d5d8c58be28fe86U, 0xbcbb5743be52fd75U,
  0xbd5cfe04bc3fb6d2U, 0x3ccbba31bd87b705U, 0x3ddf0f6abe4b4841U, 0xbb90d0673d7f7e58U,
  0xbe2affbdbc4eef81U, 0xbdbc4956bd0b52feU, 0xbe4ff5d4be07875cU, 0x3e25015c3e1e0718U,
  0xbe068af23db5bfa7U, 0xbee4db123e526aedU, 0x3e0f2ab1be937446U, 0xbe58c6e13d885e17U,
  0xb96a9be23dbfd21aU, 0x3ecd05b83e3b3a83U, 0x3df5d351bd61c3abU, 0x3d025a5fbe21d9feU,
  0xbd380e8d3e65c098U, 0x3ca07f14be8aa5f5U, 0xbe7bffe9be8db6ffU, 0xbdecb8793d0ea4f9U,
  0x3d1e2aeabdd659ebU, 0x3d2bfea1be57c98fU, 0xbdf78c8dbc9e4573U, 0xbd9b04593e40c844U,
  0xbda880333d4cfaf8U, 0xbe11c37dbe411f02U, 0x3b7c0c41bcfd4eacU, 0xbe42c9ee3e06aa9fU,
  0xbc505ca33d2e9584U, 0x3e18aef93dd01b9fU, 0x3cc4d108bc929881U, 0x3c452c753e917946U,
  0xbdd8e63fbca3148fU, 0x3d8f0bba3b1d7c3dU, 0xbd82bf763d76ad46U, 0xbe5822e8ba9790edU,
  0x3d95f96ebbeadecbU, 0x3d8917d83dc5b9feU, 0xbe07533d3c31a722U, 0xbd0a513d3e5526f6U,
  0xbe1037dabd74726fU, 0x3df685d0be4ce932U, 0x3bc3284dbd916c8bU, 0xbdf6a98dbdec468aU,
  0xbd8b665c3e7fc717U, 0xbeef8544bf043365U, 0x3b91a7c93be93122U, 0xbe4aa91e3e38c799U,
  0xbe5709fcbc065732U, 0xbf4c73c2bd17b41eU, 0x3e1c9e9abd967e2bU, 0x3cdec8eb3e46f39dU,
  0xbe10a4c7be0dc39bU, 0xbe64bdd4bdf26e55U, 0xbf01dff4bdee0906U, 0x3dd14ed8be9b4554U,
  0x3cabda043dca5c11U, 0x3d27251abe45fc12U, 0xbe13f7f53df1bd37U, 0x3d1989c6be24a6b3U,
  0x3de8ab86be84fb0aU, 0x3d4408a93d0b27e4U, 0xbcd83a533d28b6beU, 0x3e0134b33d402248U,
  0xbab1e6dbbe4aaba9U, 0x3e3cf745bc6f4d35U, 0xbe42dac83dcbdc1fU, 0xbe16f697be1abc22U,
  0x3de1a77b3cbd8061U, 0xbe5535e03c7e00efU, 0x3d86e06a3dd13129U, 0x3c2808c3be4b12c3U,
  0x3e3d5e263e573c62U, 0x3d2753ba3c98f2fbU, 0xbdcaad2d3a871717U, 0xbd731bafbdfaeb44U,
  0x3de8b6373e08d800U, 0x3dd42def3e12666aU, 0x3dcce360bdea9da7U, 0xbe031204bd8071a3U,
  0xbe7290ecbf6d23ffU, 0x3f4902cf3ebb9488U, 0xbf1de72dbed42d5cU, 0xbef1064fbdc26c5dU,
  0xbd592814be14d7b3U, 0xbe83dd6dbd317c8fU, 0xbe8a0baebd332018U, 0x3cbcfa2dbdfa929dU,
  0xbe9a2cabbe02cd51U, 0x3dab8dfb3d48d3b7U, 0xbe834542bd8d7d6dU, 0x3dec632ebddb9a85U,
  0xbe351c32bd12858aU, 0x3e79c5773df200bdU, 0xbed9f876be190443U, 0x3e0d26883d9f5088U,
  0xbd835fa2be21414bU, 0x3e814a8a3e12f5c9U, 0xbed4a03dbe6fca88U, 0x3e22b6d73e0c7a0cU,
  0xbdbd1037be1ea86cU, 0x3eba6b813e3490bcU, 0xbe820ac3bdbf9a13U, 0x3e36064d3dc6d36eU,
  0xbc488930be603e77U, 0x3ec44e483e20cf0cU, 0xbe862090be25cdd0U, 0x3e41f5993d705235U,
  0xbd061961be66d1cfU, 0x3e9c18503e08c1faU, 0xbdca96c9be06df1dU, 0x3eaaf5343e1f2d16U,
  0xbc3f382abe473ac9U, 0x3ea76e6abd0a9db1U, 0xbe6250b13cbe1ab0U, 0x3d204f1d3e241114U,
  0xbcdfebf2be46db0dU, 0x3e8155eabdd962c1U, 0xbe14888d3dc46ea2U, 0x3d855afc3e38abaaU,
  0xbe058195be2a9daeU, 0x3e89c72dbd5c0e83U, 0xbe40ce923dd1770aU, 0xbe6514123e21d49cU,
  0xbd90ffe1bbdafa15U, 0x3e86a74dbe9c5ce1U, 0xbea31dbb3ddc1927U, 0xbe8671703d66f591U,
  0xbe5d90afbe0d739dU, 0x3e17f5a9bf2d535fU, 0xbee13c683e3223a4U, 0xbea658e63cc16a0eU,
  0x3dfbe0173e668350U, 0xbf0ac46c3ec9613cU, 0xbe6c3db93e074a2fU, 0xbe9ccbe5bdcf5b02U,
  0xbc06e0b2bdc44361U, 0xbe2d2ff13ebbacacU, 0x3d3c7d0abd01ab00U, 0xbe00ce1c3e7ee85eU,
  0xbd652bf43c82421fU, 0xbe8f4cb53daba0d7U, 0x3e4b05a73d8f470fU, 0x3e6913833e21a2f0U,
  0xbd1e6a563e14921bU, 0xbe289ac93e2cc994U, 0x3e78d8ef3d8218beU, 0x3e32ddfa3e726ae4U,
  0xbbeb1cc03d021854U, 0xbbeca406bdb88904U, 0xbc69ecb13ddf83fdU, 0x3e10b5213e31e7abU,
  0xbdb096183e163b6fU, 0xbe1605d7bdb98a2cU, 0x3cb83d0d3e253491U, 0x3dd6e1b93de8fa09U,
  0x3b0e4391bc68ec97U, 0xbcf20cd5bd9bb028U, 0x3d991884bd3c96f5U, 0x3d9b70ed3e2d9ebaU,
  0x3c0f36eabe3a7eb3U, 0xbd150ac6bdac2c9dU, 0x3e25229cbc68ac94U, 0x3d6193343e306b5dU,
  0xbd26cbabbd160b66U, 0xbd1cccbbbd44e730U, 0x3e1af6323d7e8341U, 0x3c1c695e3e394dbaU,
  0xbe46fef3bdd50d11U, 0xbd2fbb73bdacd71aU, 0x3e3a5a7b3e1811beU, 0xbdc269f53c440ef6U,
  0xbe46fe15be32eb50U, 0xbd9fd2a03d526e00U, 0x3e8a23163e088c1aU, 0xbe8259173e245334U,
  0xbe4cf600bea35c36U, 0x3cd76e953dbb701eU, 0x3dd8f4f53e883f20U, 0xbeb788163b9b14e3U,
  0x3e24d1983c655703U, 0xbde3a97cbcb7959cU, 0xbddf2d46be135434U, 0x3e128b0c3c57c6c1U,
  0xbdd124b03d9b898aU, 0x3cdb95c8be2a646fU, 0x3dd19693be8a5d9eU, 0xbdfad763be17a885U,
  0xbe0451653e761f9bU, 0xbda28b68be652874U, 0x3e1b8e9dbe26b9b0U, 0x3d7b1428be41feb4U,
  0xbd6d31f93e1a7e41U, 0x3d4b8302be588b52U, 0x3e829bd83e0b625cU, 0x3e97f2c2be31a174U,
  0xbd7c300d3dce6c70U, 0x3e4e46d0bd410be8U, 0x3e5573853d1d8dc7U, 0x3db74fc3bdfd6ddfU,
  0xbd8aa1323d9a5363U, 0x3ca485cfbcfce1f7U, 0x3e9cd4553e122ddbU, 0x3dd96ccd3d3847d7U,
  0x3dadfa4d3d88a915U, 0x3deced34bdda41dfU, 0x3e1c44f03d834306U, 0xbe0f69a03d5eb1e1U,
  0xbe05d2733de71d0eU, 0x3d3bdd35bc550ec3U, 0x3e4f2d453d7682f6U, 0x3d453f533e1c6805U,
  0x3d163529be0b65dfU, 0x3d8813af3da04041U, 0x3ce6274c3e221e15U, 0x3c9769ea3da9f6a2U,
  0xbdf99de6be112960U, 0x3c518d9e3cc9a5d4U, 0xbba44bb13de392e1U, 0xbc9ab7c93b8f77a3U,
  0xbe168c37be113b15U, 0x3ce5ad0f3dc2a462U, 0x3e15a5c3bdae5312U, 0xbe3bfcff3df1e238U,
  0xbd9fed6bbe64337eU, 0x3d828e533ea92bdeU, 0x3e439be5be3ae8a6U, 0x3c45e6133ccfc6d5U,
  0x39dba6e13d823c22U, 0xbe61aefdbde37e6fU, 0x3e3627493e2cee71U, 0xbda3906abc8d3e65U,
  0xbd1db7eabdbf52bcU, 0xbd83cc55bd79feacU, 0x3e990788be3389f2U, 0xbe116cb53d1b1537U,
  0xbda6570d3dc02807U, 0xbd2ab32abd6dfc29U, 0x3d4b38053ce8495bU, 0xbe6e98133ce153bdU,
  0xbe27d0f93db918d9U, 0xbd881fbcbe047384U, 0x3df6896bbe065f6bU, 0xbe257edebcc6b952U,
  0xbe7bef2cbd7babbeU, 0x3cda2f6ebe1ca6a2U, 0x3e4920953e0805b0U, 0xbe0eba21be4fffe6U,
  0xbc8384edbe420f21U, 0xbe7e30023d413730U, 0x3e0b64b4be4f033dU, 0x3bdd5008bda66bc9U,
  0xbd997619be2699bdU, 0x3e2a1d51be582899U, 0x3d1c5883bbcc8c4fU, 0xbdc9a9413d89f880U,
  0xbdadc5b7be97fceeU, 0xbdafb5993e8196dcU, 0xbb2171fabde51a51U, 0x3e1ab8943e163ab4U,
  0x3de76eeabe98eefaU, 0x3dbe27a33d88a533U, 0xbdb4712c3e61bea0U, 0x3e8d50a13e31afdfU,
  0x3e889670be02571dU, 0xbdd238db3d931e8dU, 0xbdccf50e3e0e170fU, 0x3deda0bc3e2c2ca6U,
  0x3e4bd0cabe026f55U, 0xbccea3093d653046U, 0xbe809cd83e453b3aU, 0x3e9497393d69e94dU,
  0x3e2b05e2bf1b8576U, 0xbe238b07bd46d61aU, 0xbe8f3d433e1750adU, 0x3ee730f53e014069U,
  0xbe788655bd016030U, 0xbe05f649be2fc3c6U, 0x3f044145be8a1b8fU, 0xbe5b971cbe05d70bU,
  0x3d9cc1dd3dc3380eU, 0x3d96665dbde312caU, 0xbe1a8b493d7410b1U, 0xbea55be2bc82e02cU,
  0x3e2c9b28bd3b17d1U, 0x3e2f28103d4a9780U, 0x3e057c84bd84646dU, 0xbecfdfc33d884b58U,
  0x3d672ce3be8d58c5U, 0x3d9ff26fbe616d1bU, 0xbbb07ac83c9a22cdU, 0xbe9d9c303e0dfd5aU,
  0x3e64249ebe2fc5deU, 0xbcf739b03df00d2fU, 0xbcdc5844bd1f382dU, 0xbdba31953e9cccc1U,
  0x3dc4418bbde0b06cU, 0x3e5fda93be0a0ce2U, 0xbd955e973e54b088U, 0xbe0ee5863e4feeffU,
  0xbe0259a9bdd39d79U, 0xbd280c4c3e0ebdc0U, 0x3da4f155be323bd2U, 0x3c8a4e253e977dcdU,
  0xbe062110be8b2624U, 0xbcbe190abd080ccdU, 0x3da8a0613d377ad6U, 0x3dafd7a73e125b73U,
  0xbe8c8d78bef708dcU, 0x3b1629c03e2dab7fU, 0x3e126aa7be641c87U, 0x3e96e5febe081f15U,
  0x3dbe1716be944373U, 0xbc88bed93d3f2da1U, 0xbe671ff7bea4f45aU, 0x3ecd5c243d714b0cU,
  0xbb691d843db0f7b6U, 0xbe495fce3d1f1fdeU, 0xbe1c93453ddd6c67U, 0xbd9960663d91b468U,
  0xbe46a245be3dbabdU, 0xbf001be83eb02e99U, 0xbc593c92bdea37a4U, 0x3e46b4dd3e1348fdU,
  0x3e6bef643db2c2dfU, 0xbe743b05be583420U, 0x3e83dd6b3d82b223U, 0xbd02960fbee2ad2cU,
  0xbe1035673e68c9f3U, 0xbeb5cfe6be28b3ccU, 0xbecf3bf5be046a79U, 0x3d382b15ba49101eU,
  0xbe5cd93b3e7a8bb2U, 0x3e4f4639be324400U, 0xbd70f7e2be27bce2U, 0xbea086f93d709b1dU,
  0x3e6adc23be80a519U, 0xbd856ef23e2114f6U, 0xbd934fb7be8ca400U, 0x3e9060843cf4c771U,
  0x3e82550dbdcee2d1U, 0x3e3de7f8bdce4f74U, 0x3da5de94bc0b0293U, 0x3e2561d83df47bb7U,
  0x3d99999ebebad5e0U, 0x3d9e6e563e215c89U, 0xbe940db43d2dc243U, 0x3de5f1e4bd231091U,
  0x3e45e371bf252e5aU, 0x3e2b94cd3e7437efU, 0x3e9f2ce73e0770f1U, 0x3ea370833e3e0d69U,
  0x3e215928bef23313U, 0x3d8406e93e8172beU, 0xbe051d903d82aceeU, 0xbcbe03cbbeb1d488U,
  0xbccc9a97bef434d2U, 0x3c94a6c03dccdceeU, 0xbe20c9f3bb9c14aaU, 0x3dae2ecfbdf084a7U,
  0x3e1b4744beeb068cU, 0xbd94d1453e92a931U, 0x3db8a533bd0161f9U, 0x3e3847e4be36b0abU,
  0x3e450a9dbe93951eU, 0xbee3e0473ebceda0U, 0xbd4916d8bdd9f5eeU, 0xbd65c442be25a5d3U,
  0xbe237e5abf1f1e85U, 0xbe4058fa3e8f02c9U, 0xbe94ea3bbebe70b8U, 0xbdcbf621be038bdbU,
  0x3cd1cb6a3e3cb415U, 0x3e89b0d43d6fe1dcU, 0x3d230be7be35a327U, 0xbee1a07b3db53f82U,
  0xbd9a14593d69f54aU, 0xbe2570fa3e3f6875U, 0x3dbb2d0bbdb87e39U, 0xbf1d74bcbd0e169cU,
  0xbe2d41eb3d147f10U, 0x3dd4065ebd877a97U, 0xbe9c1f4bbda1be77U, 0xbf150c65be2fee16U,
  0xbebbbc273e0f67b8U, 0xbe137cb53e224a07U, 0xbe7c7d1bbe567e2aU, 0xbe9697a1be790c7aU,
  0xbe5556adbd9c5b66U, 0xbe279460bd81f6feU, 0xbde52dfebe24b0a7U, 0xbe4e0369be69ab30U,
  0xbef12e0abec70decU, 0x3e451a90be61e3faU, 0xbebba37dbeae599cU, 0xbcca0769be0610b9U,
  0xbefaa209be29fb8eU, 0x3e5d0570bddf0c2fU, 0x3c055732be559282U, 0x3c8f9e1abe0121f3U,
  0xbe2d21e6be158290U, 0x3e13586d3e279334U, 0xbd2e3e78bea017d5U, 0x3d8db330bd0d0fd0U,
  0xbc975d79be0d0c81U, 0x3e8b8eb13dca729aU, 0x3d082b77be8f62e2U, 0x3d700afabd6c24aaU,
  0x3d3b4f49bd049615U, 0x3ed505463e1dc224U, 0x3d17b416be941495U, 0x3e0b787c3dd0a938U,
  0x3d35ada5bcbe6f22U, 0x3ea0ade3bd8fb98eU, 0xbd1b0299be26d04eU, 0x3d79d2f43dbc6c3bU,
  0x3dad34ff3d4d8175U, 0x3eb2e0e03ea1711eU, 0xbe212a24be8cd369U, 0x3d341c333e0f1268U,
  0xbdd7b269bcbecd30U, 0xbdfc07433e6b77b5U, 0xbdf868673e6ed5b6U, 0xbd686fd53d72bd31U,
  0x3d85c623be038ce1U, 0x3e0e9799bcf8ef68U, 0xbd4525a93c1e9a07U, 0xbefa8903be6e57ffU,
  0xbe784e333df5ab1dU, 0xbdc3193fbdf0c98bU, 0x3e21c1c93be98ef6U, 0xbe1b3b06bdef722aU,
  0x3ce92ae23d39e94cU, 0xbd295186be1d2107U, 0x3d5321403e8557a4U, 0x3cefae4abe313796U,
  0x3d548662bdaf9775U, 0x3dd87cb0bd644340U, 0x3e25ee1a3e4a2913U, 0x3ed246313c85f332U,
  0x3d855dca3d43b5ceU, 0x3d426a33be33d441U, 0xbdbaec4a3e23092fU, 0x3d982a2c3d94b097U,
  0xbda30f453e25c672U, 0x3e88117f3ce5a051U, 0xbecc8ff8bda2e191U, 0x3e8095373e6b5676U,
  0xbe07b97fbde20ea1U, 0x3dd1b01c3dcdb7e8U, 0xbedef630bd2b68f7U, 0xbe5d992d3ef375c2U,
  0xbd97a050be337865U, 0x3ca04e393d35b4b7U, 0xbda976d6be1ec381U, 0xbd163efd3ea60ebaU,
  0xbdfc4604be93a637U, 0xbd2b5c3b3e4e8518U, 0x3cb12b4fbcfd8096U, 0xbcee72b63e85a21eU,
  0xbe6ec65fbe38e941U, 0x3e39d81cbc8781a5U, 0xbd3ec6463e022becU, 0xbd9e179f3e53cec6U,
  0x3d11525f3da4da6dU, 0x3d1e0b14be8fc7f2U, 0xbdeac37c3da3d8e1U, 0xbe1f5ebb3d497ccdU,
  0xbd341a303cebc71eU, 0x3e6e5e68bdf5ba86U, 0x3defd3dd3e79d157U, 0x3e3fc94cbf0eb7f1U,
  0xba7d876e3c85ca42U, 0x3e0b9009bcfc1c9bU, 0x3f036afd3ea89477U, 0x3d9d08e4be31f984U,
  0xbec2d2a23d171b71U, 0x3e2e79913d97ba0dU, 0x3e42a52fbdbfe0f6U, 0x3e7b86f43dcd096fU,
  0xbe8d00413eb2f88aU, 0xbe3f78053b53d937U, 0x3d8e14783d5d56a5U, 0xbed4e9e53d31a121U,
  0x3e5950833e41f135U, 0xbde20e54be06efc0U, 0x3ce7fe5abc94d4a3U, 0xbeaa6325be5bc29dU,
  0xbcb231a0bd801741U, 0xbdae08b23e89f6a3U, 0xbe6e14a63e2f7409U, 0xbebd0743be53cc18U,
  0xbd2577f1be7104edU, 0xbdb546bbbd8f8dccU, 0xbe8500af3d3cbe4bU, 0xbe9995443e366cadU,
  0x3d498b30be455770U, 0xbdd795523df64e68U, 0xbeab0da63eb8aca8U, 0xbecaa5e43e459004U,
  0x3e07d2e33d06858fU, 0x3d0ae2f83dd66c2bU, 0xbeb637eebc68409fU, 0xbdb5ca6e3e82b180U,
  0xbd9cfdbbbe477684U, 0x3da761adbd63acc6U, 0xbe639e6b3d477029U, 0x3d4819243e2aea74U,
  0x3d3493e3be98bdf0U, 0xbd3115f2bc63e714U, 0xbe62f839be59d716U, 0x3daf6636bcf459a5U,
  0x3d9a9ababe269cb4U, 0x3e32efaf3d46cfeeU, 0xbe8bff5fbe6b5cf4U, 0xbc7bb6ed3cffe94bU,
  0x3ea361783de0632cU, 0x3d9c502b3db314abU, 0x3d9ab3303dc194b4U, 0xbe0a6b56bf0d3e29U,
  0x3e32f986bee10457U, 0x3e03c7dd3e87b4c8U, 0xbe105e2dbc27209fU, 0x3ed4f53bbe3b1004U,
  0xbd934349be67c72aU, 0x3e627a3f3ce2e22fU, 0x3e4a330cbe7b6be0U, 0xbe54bb1c3e3e3c31U,
  0xbed9c125bdcdce1fU, 0x3d0bf424be4d7d12U, 0x3e1f4b823db1e725U, 0xbe84a40fbdfece18U,
  0xbea4fb693e99b958U, 0xbe941708be661775U, 0x3da02969bea26c52U, 0xbe27f6913d1b84ddU,
  0xbd8722823ea335e7U, 0x3d0b1700be1c279eU, 0x3ed52b203d8226e1U, 0xbdc7002ebe13585bU,
  0x3ddaa2debb7885f8U, 0xbe3f29b739ec5a8eU, 0x3ea1ecfcbd9a5c88U, 0x3d487ed8bda7da98U,
  0x3e219b763d9d199dU, 0x3e3c2e7b3e4addd7U, 0x3d888cc23df60b99U, 0x3ddb1aea3e082481U,
  0x3ebaf3f7bd23e3eaU, 0x3ec84eab3daa1a58U, 0x3e16c3223dbef5a8U, 0xbe613788ba7d1bdfU,
  0x3f033468be74257eU, 0x3e803b0d3e947d69U, 0xbe1765fa3db95d52U, 0x3c0658d83dc1797aU,
  0x3eb17324be858b57U, 0x3bcde4fa3eb288c3U, 0x3e2ed4a4bc5bc500U, 0x3dc7eea23dc41befU,
  0xbd1b5ea43d910782U, 0x3e83baea3d9672fcU, 0x3c2d78eabd2e3ce7U, 0xbf19645e3e0cb274U,
  0xbf01ebc83e5e510dU, 0x3ee3bb163e681d40U, 0x3d15ea473cfa833fU, 0x3e8b6f9c3e99656dU,
  0x3f04dc7f3c781472U, 0xbe04bbbf3ebb8c2cU, 0x3e2f35033e7cd592U, 0x3e32cd163dd2e514U,
  0x3e6faf663e4fc058U, 0x3d252abf3e47403dU, 0x3d4636fd3ebffc75U, 0x3de4f53bbdc39acaU,
  0xbd8e5524be39aee6U, 0xbd7a6fc53d898814U, 0x3bdc47773c86e5a4U, 0x3def15acbca13e3cU,
  0x3e16a2e53e78f7f2U, 0xbe84f0d23ed4858dU, 0xbd2371223e34805fU, 0x3e434bcdbe610a48U,
  0x3eb370863d9a68b2U, 0x3df40511bead2560U, 0x3ebf946dbd84bdd2U, 0xbdd8d3663edefb93U,
  0x3eb4a4c7be98dbafU, 0x3e01f58fbe88bf78U, 0x3eb3f512bdfca87aU, 0x3e7bafab3e66d75fU,
  0x3efae2c1be32e049U, 0x3e0a61b2be13e731U, 0x3e3e9048bdcbb162U, 0xbe8151fa3e1f85feU,
  0x3f082820be0e4a65U, 0x3e50826e3dff2224U, 0x3e01fdd93e32878cU, 0xbd977c273da2a5d2U,
  0x3e061d9dbf1aa6cbU, 0x3e4e5f753e496795U, 0x3d220d753e1f1946U, 0xbe6aba8d3d46828dU,
  0x3ea201b5be46073fU, 0x3e7c50003e785be0U, 0xbdfc230bbdff4546U, 0xbe300b463cd29d7fU,
  0x3debd3af3d70f7b9U, 0x3e2e97663d179d40U, 0xbe5f62fcbdc6a5c5U, 0xbea12732be4f8c06U,
  0xbe82f0c4beb7f60eU, 0xbd99e3033e2c74f4U, 0x3e9f753fbdf0eba4U, 0xbf8581a7bed61b9bU,
  0xbe98e600be185724U, 0xbef8a4e63c8ddf9eU, 0xbeab70ffbf0685a0U, 0xbe170aa9be152d12U,
  0xbe026551bc48079cU, 0xbc8dba763de4313cU, 0x3e30d425bef90073U, 0x3dc183cdbdd9dfddU,
  0xbe350cb9be5ef178U, 0x3dd6da3e3d9ccc1cU, 0xbe255a1a3ed490f6U, 0x3eba1ffdbd4a05a6U,
  0xbe1dabf93d6282bcU, 0xbd63aa46be6d8b26U, 0x3ddeb16abdbba76fU, 0x3e814c7ebe6fbae9U,
  0x3e6b85293df40e11U, 0x3e7fce8abe4370d0U, 0xbc5bed83be81aaa7U, 0x3e473956bce13c6dU,
  0x3e37f5093e18e308U, 0xbe0ad435bec31e84U, 0x3e61ffbbbd20a0caU, 0x3da21be33e9d948eU,
  0x3e186d0fbdaea16fU, 0xbb81c52dbf12a57cU, 0x3e2efc913daf0491U, 0x3ee8b8583bb1d7e3U,
  0x3e95cc1cbf2d9c16U, 0x3d903b943e1ff9c3U, 0x3f1b6b793e250e89U, 0x3e25302a3e2dd2abU,
  0x3e817346bf0b73c0U, 0x3d3096443e48a13dU, 0x3f0485c43e1f970bU, 0x3f0aecffbd08ac35U,
  0x3ec651343cde29d0U, 0x3cde01ac3cc552c9U, 0x3e8cdb3c3e138dfbU, 0x3e5144f3bceff4ffU,
  0x3e54e7fabe706f81U, 0xba67f458bedf1cf4U, 0x3f08becf3e5c0161U, 0xbef4a41f3eb76c7dU,
  0x3d82148fbd26e706U, 0xbe16d669be0c542cU, 0xbd504f633de8b088U, 0x3e0e4c943cd83fd1U,
  0x3bababe23e1c8f97U, 0x3cc5c78dbdf9fd05U, 0x3e2642e6bb581402U, 0x3cdcfa6fbd851b5dU,
  0xbc6dd8a93e12d457U, 0xbf0a30c83e773dbcU, 0x3c652195be52f417U, 0xbb02de90be68bccaU,
  0xbe0684673dc9603eU, 0xbe7b612f3ecc5ea1U, 0x3daf158dbe9e69b8U, 0xbe8b0ac9bd2cc780U,
  0x3ce02eb2be8485cdU, 0xbd29a9053eacbfdeU, 0xbdacde3c3b0b5042U, 0xbe011c57bce7e0e7U,
  0x3d9e1290be4eec20U, 0x3d9b30f7bdda6c1bU, 0xbe91fb803dbba2beU, 0x3d167a673d15440bU,
  0x3d201ab2bda40a0aU, 0x3e21cd89be6b0328U, 0xbe9483b63e1608feU, 0x3d4542843de03b8eU,
  0x3dd04c22bd841d50U, 0x3d4e724cbe881eb5U, 0xbc1f3b773e23680fU, 0x3e00ad973d807e0eU,
  0xbd2a90ac3e3debf2U, 0xbc13d4aebf03b5beU, 0x3d3c7cf53c8a3ca6U, 0x3d575a5cbd005d1eU,
  0xbe27d4bf3e43434cU, 0xbe9b73143dc0d847U, 0x3e3d5274be7c6619U, 0x3d9901abbeaad138U,
  0xbe30fdd63e44ca72U, 0xbec7fb113f01f5feU, 0x3e285064be5cec6eU, 0xbe6473dabe0954c3U,
  0xbdb3ee073d4cc743U, 0x3c925e933f128148U, 0xbb76a25a3d222052U, 0xbee4b43abd37d9f7U,
  0xbd6b42e2bcf148f3U, 0x3d684a463e8b222dU, 0x3ceeb40d3e11458eU, 0x3d47119abc525056U,
  0xbda7dc703e3601d5U, 0xbe43742d3d745178U, 0xbd96d6a2bde4a12aU, 0x3db299e43ce8ea29U,
  0xbf2ddbf33e17d22bU, 0xbea4b7cabc24a614U, 0xbc11346bbe6ac88bU, 0x3ebb6eb93dc949acU,
  0xbf3a954dbe9e2b9dU, 0x3c060ca4bd66ba9fU, 0xbbd01163be541e5aU, 0x3e99c19bbe0745a6U,
  0xbe756a19be37ad93U, 0x3e434b6ebdf5f5afU, 0x3e013eaebdbb5026U, 0x3e9c2d27bf2c91cfU,
  0x3df8e712bda235daU, 0x3e8de750bd9dd848U, 0x3e252a46bcf83fb9U, 0x3e28fa4abe4de708U,
  0x3e188593be17d3b2U, 0x3d3a9bba3e01141bU, 0x3da4d8713d7adfb4U, 0xbe9260bcbd6d4db4U,
  0x3e09332e3e4b73fcU, 0xbd391fc63d1bac5bU, 0x3d2dcd9a3d83db9cU, 0xbed44292bd49b69cU,
  0x3dc8a96a3e7e7671U, 0xbe2bad03be058ee1U, 0xbdf9865dbde05c87U, 0xbe0ee1b63e091f30U,
  0xbebd1ee33e7b0005U, 0xbf07b8a2be04c2bdU, 0xbb43f07cbe82a2d5U, 0x3e0d79f23e502b42U,
  0xbf0ecc863d227fb4U, 0xbf064b8dbe636c77U, 0x3da8d908be9cf177U, 0x3e8ea72b3e0e1696U,
  0xbeaf3b5ebd8b44bbU, 0xbde64febbe1f78a4U, 0x3e091542bec42f28U, 0x3e873e9c3d38cf4dU,
  0xbe56bb23bd444b3aU, 0x3c963971bd643135U, 0xbd8541273d3c1c00U, 0xbde7183ebe93c57dU,
  0xbdec67c03e3d5a33U, 0x3d54bd67bd20cf92U, 0xbda37026bdb16ec7U, 0xbba5db40bd779237U,
  0xbeb37a7e3e6845b1U, 0x3cfd2882bd66d780U, 0xbe222fa13e7509adU, 0x3bd293a53e3930c8U,
  0xbec7b43a3e417f2aU, 0x3dd35a8e3d2debe3U, 0xbeac65683d78ded9U, 0x3e5c74da3e3134e9U,
  0xbeb549c4be86b028U, 0xbe13b8da3dc2ccbeU, 0xbe37fd9a3e93e9a9U, 0x3e9d1c9b3e236ee5U,
  0xbdc33129bed88f9bU, 0xbd648e533ddf2814U, 0x3de74d9e3e7df02aU, 0x3ddca152be0d8934U,
  0xbdc43469be48f493U, 0xbe92bdc53caf701eU, 0x3e48b736bcc10927U, 0xbbbc41d1be57e668U,
  0x3d7e1b5abe4cf73dU, 0xbe234474be0e2f7aU, 0xbc89f2d6be247045U, 0xbe81cfe4be17ff38U,
  0xbcc949c33d9b6455U, 0x3e014887be99aab0U, 0xbe036b7cbecc72d0U, 0xbd9e97f4be937fb3U,
  0xbe974c933e6b0b35U, 0x3eb518cdbdc6811cU, 0xbed072a7bea12d8fU, 0x3e222075bd12436cU,
  0xbebbf85f3e33c186U, 0x3e4e36c23de2b1f1U, 0xbec398c7be2d167bU, 0x3beb5ac43e2f75e6U,
  0xbeb5601b3dadce8eU, 0x3ee347eabec829c2U, 0xbe995e893e5d882bU, 0x3e3c86373e237b32U,
  0xbc713d72be3e19d9U, 0xbe8afbb03d1d07b0U, 0xbe98fe183de2539dU, 0xbd982997be01d627U,
  0xbef81dd13e08f694U, 0x3c7235df3de4fd49U, 0xbe1fe1063d8361bbU, 0x3e6a77623d8a8fbbU,
  0xbf0f54563e1dfb64U, 0x3d2185b5bdd77305U, 0xbe337aa5bbf6d256U, 0xbd9254b5bb97d258U,
  0xbeff312d3e338006U, 0x3e96c383bd84bcafU, 0xbe098cefbe4dd7dfU, 0xbddf54d73d12fcf6U,
  0xbe307d4abca40ca7U, 0x3e76117abe3c6b64U, 0x3e01e741be52d252U, 0xbd851b653ebaffdfU,
  0x3c063557bde66ccaU, 0xbcb17029bb4dade3U, 0x3e1456313d44ffbeU, 0xbe33472cbdb35273U,
  0x3ecf94bbbe8c7158U, 0x3e00f1fe3e26de4bU, 0x3d8f998d3eb63d0cU, 0xbde6d2ccbad45857U,
  0x3da5645abe81c76bU, 0xbeca76143d191714U, 0x3cecf0783e5db957U, 0x3d885bd03e013541U,
  0xbece22acbe4fa4c0U, 0xbe2f00c73de11902U, 0xbe8c965fbd27bbf2U, 0x3e337ae93c930aebU,
  0xbe72296f3d9ebc70U, 0x3d808a30bd2b15a6U, 0xbec28ab13e22d90eU, 0xbe1834233e319014U,
  0xbf20f95dbd090758U, 0x3e15a163be054125U, 0xbda66c3abe752342U, 0xbda40d0a3cc03f5eU,
  0xbebc5ac93e45ca1dU, 0x3ed6e425be2ea7adU, 0xbdb03382bf019979U, 0xbebcc7e53e9a57bdU,
  0x3d2c5bf03d62f0b3U, 0xbc4b705c3dc275ebU, 0x3e5c12193eb73614U, 0xbe8e9964bd1795b9U,
  0xbeea8f9b3dee2663U, 0x3d0a9311bd33ac7cU, 0x3e09abfa3d504d8dU, 0x3e2dc4743e20422dU,
  0xbf5772fa3ef89e51U, 0x3df0f751be07b0feU, 0xbe58fea1bdae95c4U, 0x3e8314603e87754eU,
  0xbeea4bc53e0017e3U, 0x3e86ca043e251666U, 0xbc6288ff3dd954f6U, 0xbe8bedd5bc21fbf0U,
  0xbdf8425dbe33ae17U, 0x3e86231dbe11e5d6U, 0x3e537015beac521bU, 0x3e8f1d95bd42d7b9U,
  0xbe926f70be092d8dU, 0xbd974b94be40ea77U, 0x3dbaacd53cf79055U, 0xbe78b7af3dd20c2cU,
  0x3eb37a643d85a4f9U, 0x3e4e3e93bd1b3b0cU, 0xbd5d84363c21c2eaU, 0xbe0529e23e61d0afU,
  0x3d9f8000be372b07U, 0xbe355c8e3e58f7b4U, 0xbd84e7a73cc3cf3aU, 0xbd0b69643def9621U,
  0xbe5f84cd3ebb8944U, 0xbea3c1aebda3c34eU, 0x3de37b7a3e154a06U, 0xbdf64498bc03a982U,
  0xbf126a463eac48b2U, 0x3e307a42bc06e998U, 0xbe8896aebea10252U, 0x3e2cee913e3f0519U,
  0xbf0051aa3ecb4a66U, 0x3eedb2d8be8e35afU, 0x3e2cf53ebe1a8220U, 0x3e984c233e1adb13U,
  0x3e259dc13ec1d6d1U, 0x3ee08314bd8141e0U, 0xbe22e5e8be699af9U, 0x3e747cff3e694f64U,
  0xbe5fe0b93ed1fc09U, 0xbe2b0500bcdcaa46U, 0x3dae45e5bd13a271U, 0x3d6f0232be49381aU,
  0xbd3e1d2a3f2be5d1U, 0xbe7eaaf53e0122b5U, 0x3e596543be50a746U, 0x3e384136be3960cfU,
  0xbece87fe3ee0e6e9U, 0x3dd0b96f3c009490U, 0x3e5093703d4fce75U, 0xbc0f8006beb8a23dU,
  0xbe1fb2cd3e504096U, 0x3e01bc44bdf3e346U, 0x3d5289aabe3fbf4dU, 0xbe3fb1863d202b0dU,
  0xbbd0c07fbd8b5d6eU, 0x3e75b74f3df8a28cU, 0x3e7202393d50b621U, 0xbeb4d2a0be3a8ec0U,
  0x3e9833b0be9f8d0bU, 0xbd68868dbd859badU, 0x3e9509943d7e9d89U, 0x3e1a93003d3f0750U,
  0x3eb69995be5ffa76U, 0xbe5368d0bde8a57bU, 0x3e6e6ea63dc7d70aU, 0xbe79d259be21b516U,
  0x3edbf5623dc76a39U, 0xbed6fe8ebc89add5U, 0x3e42659abd4d2d3aU, 0xbd74d89cbe02d6bdU,
  0x3d5666383eabb7bdU, 0xbe8981dfbddf8309U, 0x3e1c81dd3d53343eU, 0x3e57e5893d443bc1U,
  0xbf31126c3e8d9c21U, 0xbd45f4a3bd6808baU, 0x3e28041a3e2a6e44U, 0xbda1493f3d0a7227U,
  0xbf303d7f3f0290ddU, 0x3e10e87bbd7ec695U, 0x3cf072aa3e6bf4a8U, 0x3f04b93dbdb6cdccU,
  0xbeea5c0b3dc845c4U, 0x3e0d2fb43ea1a5bcU, 0x3e0416a3bcb3fc87U, 0xbd60c88b3dedbafdU,
  0x3cd3d62d3d1e00bfU, 0xbd907b70bdc5b9b8U, 0x3d2c7d85bdd6b59eU, 0xbd9c3bd03ce424c0U,
  0xbd4bf4db3d27bb63U, 0xbcdb8def3d1098a0U, 0xbcb6f773bd02db8eU, 0xbc2021f63d950602U,
  0xbdaf0d833c8e7426U, 0x3da07483bdd7091fU, 0x3d3c745ebda70c65U, 0x3d2c1b23be097f5fU,
  0xbc85b0bcbd07cda7U, 0xbd8c38e9bda56512U, 0xbdce07a3bcaaf4ecU, 0xbc8a38e1bdef0d70U,
  0xbb0fc1b73d4fff49U, 0xbd9812cdbc93560aU, 0xbd810982bd362006U, 0x3ac6b625bdfd0d73U,
  0xbe0d04eb3d36ef1cU, 0x3d84737dbd80132cU, 0xbda0c1c33c6548efU, 0x3d20e196bd9ff59cU,
  0xbdc297a33cef1568U, 0x3ced05cfbdad0254U, 0x3cf1c2f33c5a6859U, 0xbd54ddbfbcb72755U,
  0x3c14bb22bd863d22U, 0x3cf4fb4ebd06b2a5U, 0x3d65a07dbcce2ab1U, 0x3d1166bdbdc2a2a8U,
  0xbd3b85bcbd910464U, 0xbc0805aebd3cf25fU, 0xbdac4ee5bdb8b7bcU, 0x3ce2913eba6fec94U,
  0xbc8959be3c4c54a2U, 0xbd6c09abbd1e341aU, 0xbb6cb43dbd8ed1e9U, 0xbd833257bda00fd3U,
  0xbd02681d3d2eadd0U, 0xbdd292fbbcee2b73U, 0xbcacf3d5bcef7aa2U, 0xbdc406d3bdc0235aU,
  0xbddd2b31bdb2811cU, 0xbb4617fbbb7be172U, 0xbc44b051bd5a8519U, 0xbc90c42abdd861cbU,
  0xbd708bb0bcda9142U, 0xbd670efebc037badU, 0xbd080ce4bd4884e2U, 0xbc908f43bb125133U,
  0x3d3a84fcbd7b4df4U, 0x3d58eca0be071e1bU, 0x3c1241abbd8ade7cU, 0x3d914ef63bdaa00eU,
  0x3cf62a873d143bb2U, 0xbd18dd9bbe0fd635U, 0xb9893c5dbcd9a144U, 0xbd50ca95bde47967U,
  0xbd056ad5bd6b3992U, 0x3d4f4d40bdd67b5dU, 0xbd51e7c53d5aa652U, 0xbd6f63653d01b977U,
  0x3cb8e64b3bcf8f35U, 0xbd8a63bc3cacb867U, 0x3da00d49bd9817bdU, 0x3d6a0b2bbd251df7U,
  0xbd30a384bdda550eU, 0xbc1969b5bd8e9de5U, 0xbd870549bdbf65e0U, 0x3d6dcd9a3cf6880cU,
  0xbcc7577abc1b66e9U, 0xbd1654ccbd5c16cdU, 0x3bf3631dbdc26f6cU, 0x3d84d90abd6bc8cbU,
  0x3d751b90bc8945e7U, 0xbdcdf41cbce1082aU, 0xbd6486ecbd35fe61U, 0x3d21d7d13d5a3d4fU,
  0xbc35434ebdc9ec43U, 0xbc895a643d3f342aU, 0x3d308ad23d245238U, 0xbd9e0719bbd118b2U,
  0xbde6dd90bdd9f5f6U, 0x3d1be75e3c14afcbU, 0x3d021c27be14f5bdU, 0x3a9c1c53bd96b607U,
  0xbda98ebb3d063a52U, 0x3d414fd83c1401eeU, 0xbdd41e99bd447e93U, 0xbd248c57bdba537aU,
  0x3d6e5ee7be0fbba4U, 0xbdfc10b8bdd38fffU, 0xbe002e82bcc09dd1U, 0x3d16c6fc3c5e8755U,
  0xbd8d46b1bdd225b7U, 0xbde85e153d502046U, 0xbd2c82f33ce049f1U, 0xbcc91c25bddbdc8dU,
  0xbd633179bda7a13dU, 0xbd9c7645be0d3dccU, 0x391734fdbdc78eb3U, 0x3c5ad6f43c12dde8U,
  0xbcdfe68f3c6b847eU, 0xbd7e9384bd64e1caU, 0xbdd800c03be4c704U, 0xbdb0fe353d674372U,
  0xbc55cd9abd94c09aU, 0xbdd0da5fbcf1432aU, 0xbdaf6848bdecc2cbU, 0x3bf8a191bdde8aa5U,
  0x3c802522bc5eaf2aU, 0xbdb507d1bda49c4cU, 0x3d56aeae3d5723e7U, 0xbb983181bcc3fbdeU,
  0xbdec5050bcae6cc0U, 0x3c2bcab5bc85e0e5U, 0xbd1c4f58bdfb49c5U, 0xbd90ec45bd9f5169U,
  0x3c724405bd9ed149U, 0xbdbb47c8bd8f42baU, 0xbda4ac7f3d116f83U, 0x3d1b042dbd8cc9e4U,
  0xbcd553c83d37833cU, 0x3ca0549a3b902511U, 0xbdaf5c35be0d4948U, 0x3d13ca8dbdb7f3f2U,
  0xbd6e812dbdfa6d51U, 0xbd8853d2bd2915dcU, 0xbc448bda3c8eeafeU, 0xbdb690aebc4ab973U,
  0x3cd11e83be01bf72U, 0xbd9becc4bc9dbad4U, 0xbdaa3a08bd2ab3a0U, 0x3d43ab5c3cd15c6eU,
  0x3cf07ac6bd6e6169U, 0xbcafd7bdbda12f60U, 0x3cda298b3c61ef54U, 0xbcee6d84bd7c4f48U,
  0x3c5ad0c03cd6f4bcU, 0xbd60cfa93d3c3c39U, 0x3c6b6b90be039952U, 0x3c06d3fdba17e6ccU,
  0xb98dadb4bdcf8798U, 0xbdc935d8bdab10c2U, 0x3d58a3a6bccd5954U, 0x3d47a382bc7303bfU,
  0xbda79f8bbd9fcef0U, 0xbde048c4bdab4e7eU, 0xbd793880bcd4c306U, 0x3d57039f3cac9d5fU,
  0xbd1f7ef83c8d89aeU, 0xbc5d07463b0dc160U, 0xbdc5a194bd900764U, 0xbd3b183bbd86b8d1U,
  0xbd56d1783c82d92bU, 0xbbeab8bcbda133cdU, 0x3d047ef33d7888feU, 0xbda993f0bd83611cU,
  0x3cdb291abd28dbb7U, 0x3b165351bcbf3601U, 0xbc17a7123c591d8cU, 0xbd2add203c52ebe8U,
  0xbdc393533d6be762U, 0xbd8bc9debd4a19c1U, 0xbd70ba72bd1cff30U, 0x3ce287c2bce919abU,
  0xbd98ba78bdcb6a79U, 0xbdb2fa0cbdcd26daU, 0xbd6234b53abe6d8aU, 0xbdd6ee58bd0116c1U,
  0x3bfbab4e3c42e539U, 0xbd95b3cebd7a997aU, 0xbdce6ff6bc6a079fU, 0xbc67d8febd909db5U,
  0x3cf3b70bbe14959eU, 0xbab2e079bd5973c3U, 0xbc6f3ebd3c7ca77eU, 0xbd5247f33d3c7e6dU,
  0xbe1a63bc3cded671U, 0xbcb9b3f83cc3ab1fU, 0xbd8c17373d1bf5a1U, 0x3c2b4f0abc5cb78fU,
  0xbdee50fbbce728adU, 0xbdab3815bc926eceU, 0xbd1b5f2a3c9f12e7U, 0xbd0ad56d3d1b51e9U,
  0xbd4554a63d43dfa7U, 0x3d14f0943baa470aU, 0x3cef9b5f3c8f23edU, 0xbca29de93d1accaeU,
  0xbce837c43d130ed2U, 0xbd849531bda6850eU, 0xba489b7e3cb4e8dcU, 0x3d22b2f8bdc8a38aU,
  0xbc11d290be12b901U, 0xbdcd7b3ebda88df7U, 0x3a17e0ebbd837bb6U, 0x3d4b3b66bd590739U,
  0xbd4e06ecbda4f1e6U, 0xbd4a14063c26f14fU, 0xbdf2b733bdec0872U, 0xbd02b66abdb1ed4dU,
  0xbba95dce3d99580fU, 0xbddfe8bbbd55a3f4U, 0xbdbffb7abd812245U, 0xbda34b21bd99c0acU,
  0xbddf39393d6ebc7dU, 0x3d5743973d0bad2eU, 0xbd7391bdbda8fb67U, 0xbd88bf083d8fd29aU,
  0xbdf6f4d1bc022170U, 0xbdbca52fbd4e286bU, 0xbddd6c2a3d1f98ceU, 0xbd5e3fa93cd7c407U,
  0x3d0cca50bd9f09f9U, 0xbbb93e86bdb35135U, 0x3c9bd4463c4e46d8U, 0x3d00710b3d5e5db2U,
  0xbdc7e0493c7a4891U, 0xbd9778edbc7aec91U, 0x3cb17353bd89400eU, 0xbcc9c24dbd055227U,
  0x3d1e0edd3c0460c8U, 0xbda0a6f0bd88d84cU, 0xbc93b790bd86c598U, 0xbd5f2dc8bdcea9fcU,
  0x3d64afedbd6d30d7U, 0xbde36069bd00334cU, 0xbdefcf5e3d0da573U, 0x3caa16a2bd830126U,
  0xbdc35dd63bc90f4dU, 0xbdfd9ffbbd9b9f07U, 0x3c9645abbdc191c5U, 0x3bb3ac463cb8bd45U,
  0xbd6ae047bd2088f4U, 0x3cf7ee7e3c90bddaU, 0xbd007e8e3d0fcb73U, 0xbdf0196abcffd528U,
  0x3dabf86b3d196905U, 0xbd939e6abde97a09U, 0xbc47f2f0bd43404dU, 0x3d907670bc9113eeU,
  0x3c0c4c0cbd788086U, 0xbba2041bbcc2c52fU, 0xbd286e2cbd88bc36U, 0xbd834389bd71216fU,
  0xbd9d5d6d3c998c96U, 0xbcc6b6e5bdc9743eU, 0xbdd820253da53680U, 0x3d2a714abdd887ceU,
  0x3d1a167ebdd63f32U, 0xbd8fe961bd8f55f9U, 0x3d1b78d73cfb0006U, 0xbdac67d8bdaa36e8U,
  0xbdbcd1833ac5dc23U, 0xbd4182e1bde66978U, 0xbc3ccd6fbd4764deU, 0x3ce96f74bdcea714U,
  0xbbdcfff9bc6e95b4U, 0x3d900876bdac8c42U, 0x3d311507ba1d3959U, 0xbd38441f3ca911a1U,
  0xbd04f1193d5eb6b0U, 0xbd2a8355bbbe207aU, 0xbc74cb71bd0165c5U, 0xbd66ad94bd3a1056U,
  0x3c4f1de6bd2cfcd3U, 0xbdbdce4ebdd74fe0U, 0xbd151c263c8ce085U, 0x3d5c4455bc0547d8U,
  0xbd2f9cc53b8c5546U, 0xbdab6473bcdfe0d9U, 0xbd5bbc5abd52a84cU, 0xbcebc6c03d2f44b1U,
  0xbda614cabd7d24f3U, 0xbc4f589d3d1436e2U, 0xbc5472d7bd31fa4eU, 0x3d5f4803bd69b763U,
  0xbd174fc8bd6cfa20U, 0x3b1505eabd18c9e8U, 0xbc641255bd73fe6aU, 0xbd65d901bcce9bbeU,
  0xbdc22a10b85d9d10U, 0xbd05d4793c52f026U, 0x3c93d7e3bbd287bbU, 0xbd760a113d791e0cU,
  0x3d97a3efbcaa4818U, 0xbd31ff56bd9820ffU, 0xbe9f0eb53e81c1c3U, 0x3c20b8333d4d6e77U,
  0x3d9891aabd323055U, 0xbe39f3babe8c1b43U, 0x3cbd304d3e44dd50U, 0x3cb080433d5b0d21U,
  0x3ddda635bcb99dc1U, 0xbe13b4c2be3e8d9fU, 0x3e1198993e1a2d59U, 0xb7f026703d723ccdU,
  0x3e2f9ed4bdae0ec3U, 0xbe2e3aa7be0bf7a6U, 0x3e7bec483e222e9dU, 0xbadf72203d412445U,
  0x3e12ea61bd9e43b6U, 0xbe3a75f2beb9fcc7U, 0x3e20f52b3d45975eU, 0xbc439c673dbe6f73U,
  0x3dd872e7bdc6ddcaU, 0xbe05ec4cbeb73baaU, 0x3e375e23be37633aU, 0xbdbb9d523e171846U,
  0x3d506024bc53aebbU, 0xbd946d46bdbdddacU, 0x3e005db0bf1962daU, 0xbe0e5fcd3e0fa6a5U,
  0x3d90a606bcb0a54cU, 0x3d7291033da57034U, 0x3dda1951be8d725cU, 0xbe8b29f73dd09d12U,
  0x3d8bbcc7bdc16790U, 0x3d8a4ef43e8712e9U, 0x3e09fa56bd3f6185U, 0xbebcb8af3d688003U,
  0xbd3756b0be215f9eU, 0x3e469a873e63facbU, 0x3da56e033e4343d5U, 0xbedd82b2be0b4313U,
  0xbd2ffe3fbdfc8354U, 0x3e8ea99d3dc637a4U, 0xbe4f02393db1c410U, 0xbe9f450dbde5f9caU,
  0xbdf140dcbdd3a8e1U, 0x3e7abfa9bd2365ecU, 0xbea3626a3e7454a6U, 0xbe6915d2be4f37d5U,
  0x3d5e3549be4d2c6dU, 0x3d1567fe3d4f3da3U, 0x3c9c4f033dc5d398U, 0xbdb2129bbe73c4adU,
  0x3e82ce06be1695b4U, 0xbe31c269bdc33527U, 0x3e2b8d5c3e3f03b9U, 0xbcd6f4f4be732d35U,
  0x3e798c5cbe6e31c7U, 0x3dea213fbe29cda5U, 0x3e06027fbdfcab1fU, 0xbe061ccfbde26f13U,
  0x3e796742bdda01e6U, 0x3ddc0013bda74721U, 0xbd8d1aba3de09417U, 0xbe073d3ebe0fb133U,
  0x3d938150be03c014U, 0x3e858957bdd06917U, 0xbe1f3489bd6bcd3aU, 0xbdb210153d96a9c4U,
  0x3df2495dbe002e16U, 0x3e83f55bbe0ad620U, 0xbe28951fbe3e4e49U, 0xbe17d9303e2fc002U,
  0xbdc306a7be6396fbU, 0x3de6d1cabd3b0d51U, 0xbe18c990be2ce3e3U, 0x3d15876e3e18a958U,
  0xbe5a8babb9ee7bfdU, 0x3da07878be037bcfU, 0xbed58161bea0f7dfU, 0x3da201ce3e08930aU,
  0xbe28e15abdccf2b3U, 0x3e6354e23ccc8de8U, 0xbe431355bdb1b1b2U, 0x3cdb248c3de4ca74U,
  0xbd8538ddbd957e92U, 0x3e010407bc3fad85U, 0xbe0daab43d706f6cU, 0x3decef5dbd05d4cfU,
  0xbe770d77bd04c1b6U, 0x3d9fa7463cc960ddU, 0xbb6e36e63e4e8305U, 0x3d877423be7dc446U,
  0x3d320429be93f743U, 0xbdafb0513dd9f783U, 0x3e1012593d0d1241U, 0xbda0e008be8851b1U,
  0xbde4b917bcfcf86dU, 0x3d5e15f53dbba6aaU, 0x3dbe720cbe057778U, 0x3eb4db37bdfc71a8U,
  0xbe66ddbbbdfae46bU, 0xbe37511e3e16b7d6U, 0x3e2b52773d93a1f5U, 0xbe4905ddbe5f68feU,
  0xbe9c93bbbec600e1U, 0xbd8029e63e894d72U, 0x3eb7ead4be5fb51eU, 0xbe98a9e2bc8041caU,
  0xbc62a889becabbd5U, 0x3c74e6cb3e955557U, 0x3e174732bc84a677U, 0xbe24acbcbe06731bU,
  0x3da374fcbed46662U, 0x3e89b5453e4c0d1eU, 0xbc8338cbbdfec218U, 0x3e0ee869be51d3acU,
  0x3d4cf189be966f95U, 0x3d8f1c393e1e4c85U, 0xbe5d61a03ca6daf2U, 0x3d823bccbda0e549U,
  0x3e0520b4bd516fcfU, 0x3e53e617be0a1420U, 0xbf2e4885be0cae72U, 0xbdd3afd6bc9cd39cU,
  0xbe3fa319bca971ebU, 0x3ea4e0b0bd8fccdbU, 0xbee4b202be11a550U, 0x3e274d5f3dd40797U,
  0xbe8b2ea43deffb95U, 0x3e6732f7be3e04eeU, 0xbdf70b6dbc9957bcU, 0xb9d6e2ee3e626b99U,
  0xbdcb47aa3eae24c8U, 0x3d4b2775beaf33f2U, 0x3d7dd29fbddeee5eU, 0x3c9c6bbd3d8f7d81U,
  0x3e0910be3e19be19U, 0xbdc4bc263dcfdb2cU, 0x3dc41bfa3eb2490dU, 0x3e68bc053deba8b5U,
  0xbd894fa13e9358e7U, 0xbd4ae1a2be3e2c6bU, 0x3e6a4a593d816c5cU, 0x3ddd040fbd8ff4bcU,
  0xbd378693be5e5b81U, 0x3b9b1ed43d653952U, 0xbe8e3572bd911288U, 0x3eadb2313e777b9eU,
  0xbd9a558dbc546717U, 0x3e3f65453e8eca86U, 0xbea10d083d7e13d1U, 0x3e96de863e851004U,
  0x3dea6080bdf54cf1U, 0x3d94caa73e47dd61U, 0xbe5b59003e0f470bU, 0x3e92576e3df5c379U,
  0x3e2d698abe4fa5ebU, 0x3e5f195c3e0fa14aU, 0xbe8d28853e6af961U, 0x3e4c39d63d6a87e9U,
  0x3e48f2e6bee8dcc7U, 0x3dd7bbab3e400284U, 0xbeb5f1263c942ea4U, 0x3df98881be3b30d9U,
  0x3e6f5e69be7c57a4U, 0x3d42dded3e6ea994U, 0xbe2ebe8ebd391114U, 0x3d9545f4be01a653U,
  0x3c2e8a4a3e10ba30U, 0x3d7c18653dd8b4edU, 0xbec791883e0ad765U, 0x3bf2a54ebe71f9eeU,
  0xbd1e81613dc91729U, 0x3bfd367dbdd35937U, 0xbd74913f3e076860U, 0x3e759ca3beaf76ddU,
  0xbd8fdaeb3e02c639U, 0x3e7a7181b9bc2eaeU, 0xbb60e81ebe9cbe08U, 0x3ccf77eebe0580ceU,
  0xbc3df761bd8a0231U, 0x3e0fad43bea0a075U, 0x3e171a6bbe97b796U, 0x3cff137aba78ecbcU,
  0x3d54f76fbe42245bU, 0xbd289e303cc7fe98U, 0x3e59c7703e0b93d6U, 0x3de9c2ec3c48bc1cU,
  0x3c844c30be0119dbU, 0x3c5188a63e915fd2U, 0xbdcc7e773e29a452U, 0x3d13f60b3d3935a6U,
  0xbd1ac7c7bf17324dU, 0xbe7501ee3eb437eeU, 0x3cf0365ebe88f675U, 0xbe0e48b5bce113b3U,
  0x3d8af9d8bee6a1f6U, 0xbc2938163e95afe0U, 0xbe42b0debeb52030U, 0x3e5d0a04be1937beU,
  0x3ec13f2dbe165f4fU, 0x3e2111223eb194a8U, 0xbe06df6ebdb4f928U, 0x3e1d1951bd93b7b5U,
  0x3e9a0851bdd49c5dU, 0x3d3c330d3dd08578U, 0xbeb64536bcf46551U, 0xbe3e65073c2dd4b8U,
  0x3ee6998d3e0dfb7eU, 0x3d369a3b3deb76e2U, 0xbccbf33f3d5e43f7U, 0x3e3cbf7f3cc320a4U,
  0x3ea6cf853eb3a53cU, 0x3e0ba13dbd8965eaU, 0x3d80a4fbbe9b8de0U, 0x3ee50767be9b47a8U,
  0x3f2222443e905b44U, 0x3e32b2cfbe894c74U, 0x3a056b42be5fa0f2U, 0x3ec50166bca492c9U,
  0x3eaea9a53e9e5f1aU, 0x3ea139bfbe21416bU, 0xbc8e0292be8f3d01U, 0x3eb25546bd4b3032U,
  0x3e9733a23db29ba5U, 0x3dcd9f45bca16152U, 0x3e1decdf3cdc80beU, 0x3e5954a13ba9acc6U,
  0xbe02fb55be5d7dd0U, 0x3e2002713ca939e2U, 0xbe16e871bd11ea20U, 0xbe4664283df1c6ceU,
  0xbe8b651d3e249eebU, 0xbd8a08c0bea9982cU, 0x3e098e5c3e026c15U, 0xbe04fc50bbbe23a7U,
  0x3d4676b33e2f7d37U, 0xbe880f0cbd919fc3U, 0x3acb94f43ebe42bbU, 0x3b461a863e229642U,
  0xbdcd32d6bd6c299eU, 0x3ea6ed843e2aac65U, 0xbef8aca5be5254bcU, 0xbea9faa7be7521d6U,
  0x3de973083da1e2e7U, 0x3ec932083e722887U, 0x3ed81f42be719893U, 0xbed13bd1bea67419U,
  0x3ddc20d23d928f2fU, 0x3ed637dd3da69be3U, 0xbe219f84be670d31U, 0xbe0a7c28bdfa2ab0U,
  0x3e4ff3e0bdd06f3fU, 0x3f15900bbd1b08c3U, 0x3df38dbe3e8fa5b6U, 0xbdfb3506bce9a12eU,
  0x3e9037cf3dc8d7d3U, 0x3e6c7d15be940bacU, 0x3ded01d53dc9d1e8U, 0xbecfbcaabe9a9785U,
  0xbd1a71603cd4b49aU, 0x3e4ef579bd816073U, 0x3eac245cbcd67cd2U, 0xbe420a91be009070U,
  0x3e48839d3ec928c8U, 0xbe6dab073d63c536U, 0x3e9d07cc3e4cb647U, 0xbe3a7f173db5129aU,
  0x3db331873b17d59eU, 0xbdee91da3e8eae41U, 0x3e3aaf8fbe6e27dcU, 0xbd8bec1ebc28049eU,
  0x3e42ce2abd844774U, 0xbdf6e5373e8ca3d5U, 0x3dc0eeda3c5fe868U, 0x3cfbe1f9bea98c5eU,
  0x3e224d7a3de9dbadU, 0xbd1e622d3df8261aU, 0xbc430e7a3d8e572aU, 0xbe2f5e30bbf67edcU,
  0xbdab75abbede9ec0U, 0xbda7bac73e4cfd9bU, 0xbe172bb73d1d3fd1U, 0x3d1887373e5ab386U,
  0x3e344dca3eb9e715U, 0x3db608ed3de6f2cbU, 0xbe9f9619be321834U, 0xbec9dfacbd555493U,
  0xbe4db5003e863545U, 0x3eb067023c929241U, 0x3e8b919dbe6a84aeU, 0xbd1398e4be44a703U,
  0xbdf143043e2583dcU, 0x3e9abfa1bc46cb0cU, 0xbd01c430bdd9abf8U, 0x3d8c28edbe2f30bdU,
  0xbda7e5bf3e0e437dU, 0x3eb54fd5be0b78acU, 0xbdc215b2be4aeab0U, 0x3deb4cb9bd67a402U,
  0xbdcf39683d4342b6U, 0x3e819b73bded5a80U, 0x3c28a9d5bcef5184U, 0xbd8ecfb73e26bbeeU,
  0xbda38d7f3bc333f1U, 0x3e605011be024d93U, 0x3ca646b83d965e18U, 0xbd07cc2e3dc84753U,
  0xbde1c724bc979473U, 0x3e53dc31bdfebd60U, 0xbe34a2d13e197b59U, 0xbda8362f3e202bb5U,
  0xbe373c23bd424f16U, 0x3dc92026bdb00a0eU, 0xbdf79fe83de763a2U, 0xbe45e83c3e1f4285U,
  0xbdaf27f0bb495f08U, 0xbdaf9b65bdb9a223U, 0xbeb3e11c3e19a8c9U, 0xbe0d89823e29d15dU,
  0xbcbfe2af3db615b3U, 0xbe001ba6bc71bab4U, 0xbe459af13dfd9d3dU, 0xbe8c3ab83df9ebd7U,
  0x3d9c0841bccb028bU, 0xbe9df518bd866857U, 0xbe0754413d96f18eU, 0xbe387ea1be117448U,
  0x3c46ec6a3dead8efU, 0xbef376cc3cf136eeU, 0xbe3e9d323dcaf086U, 0xbd6f6d08be979dd7U,
  0xbd0d67f73e699018U, 0xbebea3f73ce5d127U, 0xbe6c6f3bbf608bdaU, 0xbde87c3cbef978bbU,
  0xbdefa4b3bd8d9efcU, 0xbbbfee5cbe67eb16U, 0xbdf2be6e3ef6b02eU, 0x3e39b3903e60da32U,
  0xbe3ddc52bd5c4b89U, 0x3d9962a6bdd55767U, 0xbb9064a83e3d90afU, 0x3de651093e1070caU,
  0xbdf233c2be5b0d1fU, 0x3cd1e16fbc0cfe5fU, 0x3cd4fde73dc12091U, 0xbdb05c123e9ef76bU,
  0xbe7452debdd5c0fcU, 0x3df6fc013ccb6e6dU, 0x3ea6f6e6bd3ea878U, 0xbe05a0bb3e75162cU,
  0xbe09dc8ebd4e6ab8U, 0x3da14f2e3d4a619dU, 0x3e5779cabe06cf9aU, 0xbe9193ebbc85c1feU,
  0x3e089d2abf0b92d6U, 0x3d0fdb16be6aee53U, 0x3da2b01fbe503710U, 0xbdffaac53daa5ce3U,
  0x3e0a2f8abf064775U, 0xbe3e6140bd9e7bcfU, 0xbe0ac622bdd5ece4U, 0xbe797b7c3ad99850U,
  0x3ca368c7be754f9eU, 0xbdf9a8a7bba57d39U, 0xbd2f22863d827ed8U, 0x3da7f5c13e3d4536U,
  0xbc6a74fd3dbd3557U, 0x3d844442bd89697dU, 0xbe0fbebe3e79ca72U, 0x3e688e29be3b66e2U,
  0xbde3079fbd058e58U, 0xbe0d13043d3b27d6U, 0xbe2de09f3c82e269U, 0x3e4438aabe235c33U,
  0xbd901b0a3e290eafU, 0x3c5e373d3ea67d75U, 0xbde975583e1b799cU, 0x3e93b4c9bef13a42U,
  0xbdf234cfbd6f3d21U, 0xbeb124213de49a08U, 0xbe2d4c103e4d7e8dU, 0x3ef295cdbf2331a7U,
  0x3d52089e3f0d3922U, 0x3ea869a2be6d1746U, 0x3f1d8ec1be4ac654U, 0x3e89beb2beafa894U,
  0x3e29ed5c3edcc924U, 0x3db8b9ad3c83cd81U, 0x3e344e50bdaacc56U, 0xbe104fc1bdf3566aU,
  0xbe210b123e6745ecU, 0x3e26b2dd3e0b0dd1U, 0x3eb01c00be4c7af2U, 0x3d26dc2abd60a146U,
  0x3c01e799be61b0ffU, 0xbc7d964f3ea53934U, 0xbdcd20dfbe4d35a5U, 0x3c5553b1bdccaa1cU,
  0x3e4caef2bee3e0a9U, 0xbe0fb7e43da54988U, 0x3bca536c3ddc9673U, 0xbe638dfb3e45070dU,
  0xbdec1d09beadccc7U, 0x3d7cb1e4bcded8e8U, 0xbeb9370abe527a6bU, 0xbe9752393b901d37U,
  0x3d87e071be72e605U, 0x3d190eb2bdfc3aa5U, 0xbdba48553e11bb8dU, 0x3ead27e43e1b05fbU,
  0xbe6d27623e9bb7e1U, 0xbd83ba80bd1b14d7U, 0x3e13c6d83e79734eU, 0xbca748f03e53fc38U,
  0x3e8fc27cbd963f7bU, 0x3dee9255bc0f1b64U, 0x3e0608a2bd1a88c8U, 0x3da9aa353e397393U,
  0x3e3f98f2be1728f5U, 0xbda435a4bcacf9c1U, 0x3e64fbc0be100acdU, 0xbc5cf4f53cc26951U,
  0x3e00bebe3e0396f5U, 0x3d1fb82b3e706452U, 0x3e1d4675bdc72fccU, 0x3e78c6e3bde9bbd8U,
  0x3e0825523e84532aU, 0xbe95c8003db8c79eU, 0x3e84e3f6be1ca815U, 0xbd0239e2beb5d5f1U,
  0xbde6197fbdf2fd85U, 0xbe757f503e4aa1b8U, 0x3ed839553dcb1b13U, 0x3d2b8b70bf057392U,
  0xbb5535af3e79a296U, 0xbe861a8a3e87ba9aU, 0xbb8cace93dc316f2U, 0x3f0161d7bcc1e800U,
  0xbec4cd323c4c02b4U, 0xbe0b681e3e865fefU, 0x3e9414ecbd392274U, 0x3eda7480befc25d3U,
  0xbd3f808fbe843c0bU, 0xbe266cb23e698b8fU, 0xbe724397be17c9feU, 0x3d766a1dbf10332fU,
  0xbd6057bebea5c96aU, 0xbe4f59263eb00914U, 0xbed3d3a73d253aadU, 0xbd9d5278be350d1eU,
  0xbe1b76ddbe883104U, 0xbc45643f3dba812dU, 0xbe63b97fbd2f7027U, 0xbe1aeff2be7767baU,
  0x3c8bf38bbed013d9U, 0x3da9018fbcdc654bU, 0xbec541373db60cd9U, 0xbe3f000e3da6fe3cU,
  0xbe0a713bbe8c881eU, 0xbd5c82b6be43ee62U, 0x3ba698533e41a869U, 0xbe488e6dbdca210fU,
  0x3cb0cf8f3e5db0abU, 0x3d96fb073d7046b0U, 0x3e1da41abd063dadU, 0xbea901643e39be25U,
  0x3d413cf33ed33396U, 0x3dd4c284bf03a69dU, 0x3e58344e3e834eccU, 0xbe63af0e3e0c228cU,
  0x3ea078573e05658dU, 0xbe24aa1ebe97496bU, 0x3e39e0a43d787a03U, 0xbcc833df3d87d1abU,
  0x3cd0aeaa3b051050U, 0xbea0ae13bd33d22bU, 0x3e09ac793f015611U, 0x3dbba7df3d4dbdfdU,
  0x3d8334b83e98df5eU, 0x3db05abf3d432087U, 0x3e5287d8be77ef4dU, 0x3e88b6fcbe2df3dbU,
  0xbe134c8e3e13e071U, 0xbe975db63d0fd0c2U, 0x3d2c8428be6cb35dU, 0xbde21b32bb5fbbc1U,
  0xbee42d05be342848U, 0xbe54a46b3e55de36U, 0x3d289bd3be3ba850U, 0x3e07508cbb8223e5U,
  0x3cef28dbbdb7d8feU, 0xbd8090833cfbd24aU, 0xbdb8507ebe3c63d8U, 0x3ed5d14ebe44bb7cU,
  0xbd172255be8ab8a3U, 0xbe81f3e93de8a880U, 0x3d94b355be8dcb27U, 0x3e3f68cfbe417612U,
  0x3dcd3455bd2c3ae5U, 0x3d72b4553f213507U, 0xbe74ef61be3514caU, 0xbe3716d53d0a57a0U,
  0xbe0ba531bed39ac0U, 0x3e9cd0e93eaf05d5U, 0xbe319403befa700cU, 0xbe222ee73dfc2784U,
  0x3e0b6117bec546ddU, 0x3eda1fb63df54debU, 0x3dc03d5a3c980077U, 0x3e65dba83e2678e2U,
  0x3dbf5e583ddc1dbaU, 0x3e3ddeaabecf6c3eU, 0xbe129e03bd954073U, 0xbe50523d3e08a2f3U,
  0xbd5f9e5f3db0b38dU, 0x3e57ff38be023642U, 0x3d0e52b03dc632c0U, 0xbe99add93e0ab1f3U,
  0xbe9ffc0d3d18039eU, 0x3e10ecd13ce637efU, 0x3e475cfb3e852dfcU, 0xbe7f0a1cbd57f353U,
  0x3f0deccf3d9894dcU, 0x3e5a86acbf135995U, 0x3e4ef18fbdcabb6eU, 0xbe2d7ec0be834a30U,
  0xbe934043bda62607U, 0xbc893b18be11b89dU, 0xbe487c8ebc87fd41U, 0x3e05953ebe6c2ba7U,
  0x3c16ca7fbdbaead1U, 0x3e92b5203e1184b8U, 0xbe14c8043daa314bU, 0x3e4d5e933e891f18U,
  0xbeb44e653d787262U, 0x3e2b72ff3e7627cbU, 0xbe2940023f0c5358U, 0x3bffa4cebec7736dU,
  0xbe3563ddbdb986e2U, 0x3e4e70173e2793d6U, 0x3ceaab74be7cfe76U, 0xbd7174c5be3d278fU,
  0xbd4929cdbddbf524U, 0xbe99d1fe3e59e414U, 0xbe8c4bf0bd4cca74U, 0xbd94a33bbe86bf4bU,
  0x3dc12002bf1efdc9U, 0xbd2f58bdbd9a03d7U, 0xbe0f25883ddb764cU, 0xbee7f915be0a87e4U,
  0xbd190b8abef84f59U, 0xbe07def73ea81af6U, 0xbedb436abdf629f1U, 0xbd820deabdeff933U,
  0xbcde212cbf0775faU, 0xbe40e61d3c6b88e5U, 0xbef32f6cbd7a1378U, 0xbe7a9cdb3ce9dce6U,
  0x3d007daabe471666U, 0x3dbcdab0be387a29U, 0x3d8207bd3e10837dU, 0xbe2240ab3ea73fefU,
  0xbe3571fcbee0490fU, 0x3e4de9e83d6000d6U, 0xbe7b7ff63d34a2feU, 0xbaffd2303effdd14U,
  0x3e1c8fb63deb0c00U, 0xbbc4c464be357da2U, 0xbc4d7fb2bdd574cfU, 0xbf0e2e9f3ee1f986U,
  0xbe6819423d291841U, 0x3e6f2792beffa84eU, 0x3d474449bdb19352U, 0xbf3c8b6e3dfaa1e9U,
  0x3cca0d12bdb5725eU, 0x3ce7ad803e40bf10U, 0x3c0a21583db4d54eU, 0x3d949a9fbe18893fU,
  0x3deef549bdc0f56eU, 0xbdf9ffa43e1542acU, 0x3dcd633a3e026fc4U, 0xbce44fb7be112081U,
  0x3d2b005abd7c36bdU, 0xbe744b14bdcf57b1U, 0x3e1c96a53c02bfabU, 0xbd179e8dbe3a1a24U,
  0x3ca6a109bd2c05a1U, 0xbe9f16f8be0be88bU, 0x3db557953dd6967aU, 0xbe2e4a37be8fa60eU,
  0x3db1a9153b086e85U, 0xbe27c3cbbcdb327fU, 0xbcc824c7be775a57U, 0xbec3f3bcbeaf16dcU,
  0x3c682b563c98abb2U, 0xbda0c553bd71da59U, 0x3ccc4e65bf3ac2c2U, 0xbf328dcebe5bd08dU,
  0x3dc06487bc976022U, 0xbdb95040be3d0f4bU, 0xbc793818bf724183U, 0xbf18b66abcbf0f35U,
  0x3def7487bc4aba37U, 0xbdcf6bf3bdb1782dU, 0xbdde3d75bf9bf4e9U, 0xbf07669bbc9e2958U,
  0x3e03f3573da1aed2U, 0x3c22dcf7bdd8efafU, 0x3d54460ebf29926eU, 0xbf2d90ddbd39d008U,
  0x3d2651dd3df7016fU, 0x3e27bc7dbce34623U, 0xbcb7dbc3be67cf0cU, 0xbe9f1e2c3d824536U,
  0xbdbf30073e3ccbfdU, 0xbdf38575bdd2a458U, 0x3d3a5dc9be44e0d6U, 0xbe6e37a43d9c0f15U,
  0xbe92cf493b4d4f6cU, 0xbcbc9de03c6a8804U, 0x3dda6d92be3407a6U, 0xbcce33bd3dc49eeaU,
  0x3e9c6a7b3ea305d4U, 0x3eeb8b953cd0efd0U, 0x3cacd9a4bde05692U, 0xbe3ad7e4beb9d7ceU,
  0x3e2bf63c3b54d190U, 0x3e92b2133e112c6aU, 0xbd8d82bbbe9c8bc9U, 0xbe5b1836be367e7fU,
  0x3e91e42f3e37db81U, 0x3e90b9babe5ccb50U, 0xbdd3c058bef6bd12U, 0xbf097b5cbd5b45e3U,
  0x3e4d7e3a3d93cd16U, 0x3e3b0c96bdf91f7dU, 0xbdd3a20cbe96a0c2U, 0xbe6fddd73dfcfd63U,
  0x3db3a8993dea0357U, 0x3eaad71cbe183a13U, 0xbd656e6abeda9aefU, 0xbdcb41f93e1b89f3U,
  0x3d0f00843e386b88U, 0x3e066547bd9b9902U, 0x3dfac0c5bec92c1bU, 0x3d8bf0e13e91eaceU,
  0xbd8ac2a23d881861U, 0xbe0e0eef3d030579U, 0x3e027087bc4530ffU, 0x3e6e48673ea0cb0aU,
  0xbd5feadabd33a4d1U, 0xbc6ee4d0bc933430U, 0x3e082823bd761564U, 0x3d796bdd3e5f0491U,
  0x3e024c0abe373746U, 0xbebb2db5bbef924bU, 0x3e0ecfa73e2b2988U, 0xbda94c703dd93b4bU,
  0x3e2b49bfbd17baadU, 0xbe48056abdd30681U, 0xbdbd5fee3cf3664eU, 0xbe1921ce3d8a377aU,
  0x3e8bb58c3d361682U, 0xbe6d6d37bdf3135aU, 0x3d1072afbe2b8432U, 0x3e87e0e8bea64f57U,
  0x3e3c2525be6b6fd7U, 0xbe8eb013bec60ad2U, 0xbe10cdd5bea8c2f5U, 0x3e369002bdd1da1dU,
  0x3cd87dfdbe5e0213U, 0x3d1e7c33bd38618aU, 0x3eaf8dd0be413b72U, 0xbdf06048beb1b609U,
  0x3e159bb73d207efcU, 0xba8976e4bd46b233U, 0x3e36033cbda6b077U, 0xbe9f282fbee7b302U,
  0x3e2da723bcc236c6U, 0x3d8cc5ba3d223eccU, 0x3e65c3c43e1e87adU, 0xbef98322bea8b9c3U,
  0x3e533f883d1b500eU, 0x3b55130cbdd698beU, 0x3e0b8b0c3cfc71f4U, 0xbe6e21b0be6b34caU,
  0x3ea517073e2add27U, 0x3cb6b89f3cfddcc8U, 0xbc0ac5e43d291fc7U, 0xbd7c0f86bdbc3c24U,
  0x3da3c98c3e4a01ffU, 0x3cff27c5be3b655cU, 0xbe22c44c3dba7ab9U, 0x3e4e97dfbe4d8c26U,
  0xbed785143e4e3bd4U, 0x3df669983da6ec82U, 0xbe6ab3b83e0fa0ccU, 0x3dc699abbe659f57U,
  0xbed2b3953e06d354U, 0x3e30d08e3db10562U, 0xbd8102ed3e940f76U, 0x3eb445e5be696e57U,
  0xbeb2ab8a3ea2824cU, 0x3d9389733e046fffU, 0xbd26c99fbc822836U, 0x3dca7d1cbe1a1848U,
  0xbed2b33ebbed4672U, 0xbe34f5e3bace456cU, 0xbdfb5c753df982e3U, 0x3ea35bdebe806153U,
  0xbe710b043d20e8b7U, 0xbe111fc13d7ec993U, 0xbcfb90efbe9f1f36U, 0x3d1b3d15be978ba4U,
  0xbeade0283df9b29dU, 0xbeb043993e60c9e6U, 0xbde73357bed51ea7U, 0x3e79ddd43d0c999fU,
  0x3ed62ff43e55eac3U, 0x3e727f1fbda96f6dU, 0x3ed23be03bdd0feaU, 0xbd76843abd1c7c50U,
  0x3e921ff83e0f16c6U, 0x3e82d8b7bc4146b9U, 0xbc114a53bdece39fU, 0xbf122e063e1f6ed5U,
  0x3e8ef0453e4de98aU, 0x3e67f1d9bde2e140U, 0x3d88ceda3e5396ebU, 0xbe45c9463eab8a82U,
  0x3eb20c623e65e390U, 0x3e28db9d3ceae6e0U, 0xbc4ecd643da7366dU, 0x3db1e1cb3ea7aa35U,
  0x3e839309be10ce9fU, 0xbe0a2352be361443U, 0xbda230023cfd50faU, 0xbe8f76c63e866693U,
  0x3de856e23d0a8653U, 0xbd5eae6f3d86632bU, 0xbe37b354bef8fef5U, 0x3d981c2c3e48b7a1U,
  0x3d335d3fbde96766U, 0xbd5aba893ea8312cU, 0xbe9a3445be79eaa3U, 0x3e0ae5a23dbb6a23U,
  0x3de31811be0dc5ffU, 0x3df7cc7d3d6571d3U, 0xbebd9cbabe3789b7U, 0x3e3b053e3dcf1061U,
  0x3e7e26b3be4957a4U, 0xbe53a6c53e4b41f9U, 0xbe619d48be774badU, 0x3de5cdbbbbfb9c6fU,
  0x3dc232eabedd61f3U, 0xbd9b7618be18e188U, 0xbe05a7313cce7e16U, 0x3ebded10b921920fU,
  0xbdd83d39beb91b3eU, 0xbc48abc23b7b7278U, 0xbe957f1a3e32c1c0U, 0x3ebd1031bf075c28U,
  0x3e40d6e8bd115642U, 0xbeff6c1f3dc3e947U, 0xbd95e7a9be406b71U, 0x3e047f443e52e0a1U,
  0x3d1b48c0bd96368fU, 0x3de39ff7be8f0debU, 0x3e8082f4bca778c9U, 0x3dba7d183d804352U,
  0x3e69965fbe2ce0f8U, 0xbd5134393d1fb614U, 0x3e321ba53e1e850eU, 0xbdaf07d43dc36ba3U,
  0x3e7e85e8be1543bfU, 0xbd70d8ccbbc71f43U, 0x3cd3acbf3e50bc55U, 0xbd569ba63e8a515aU,
  0x3de57714bde66d49U, 0x3d1324f33dc26218U, 0x3d9c23e63dae90eaU, 0xbc9c1d623df70d33U,
  0x3ed2e61b3e02e8b4U, 0x3d5cd8df3ea8bcfaU, 0xbe5bacd2be26b00bU, 0xbdaac17b3e0746ffU,
  0x3e59e6ab3e74e32bU, 0x3e111c663e4024f2U, 0xbe2537e53e5eed5dU, 0xbe700bef3e192b99U,
  0xbdb43c893da7b2cdU, 0x3ea713fa3e8b4a17U, 0xbe3cbfe73d142ff5U, 0xbe355d8b3e9ecf36U,
  0x3ccfa79f3d9d7ff3U, 0x3e8ca79f3e4f6ba3U, 0xbe0c012c3d2f430eU, 0xbcc7dfdf3e37de75U,
  0x3d4c34813d997fedU, 0x3e5f250ebdb20df8U, 0xbbaa2cee3e406cddU, 0xbd0e4810bcd60d70U,
  0xbedb8a403e304cd3U, 0x3d97d3af3e02957aU, 0x3d1ebb39bbfa6afcU, 0x3e0bd09dbe9d2047U,
  0xbde79b683f24a0b4U, 0xbedcada3bde7e0ccU, 0x3dfae592be48de04U, 0x3d79f5b5be02487fU,
  0xbe291e3abdba23cdU, 0xbed0bee33e3b1d85U, 0x3d190d9d3d1215e5U, 0x3e93fc953c20ee80U,
  0x3ebde2373db155afU, 0x3ec42d3cbe7de57eU, 0xbd51c2d63ee4d7ebU, 0x3ea5c7eabd3d252eU,
  0x3e075877beabea03U, 0x3ca92080bd7947f8U, 0x3c53d5aebc85c109U, 0x3d8da16c3d622185U,
  0x3e8e5b1dbc1ae9d6U, 0x3d24ba473cd9354dU, 0x3cca734c3ea6bcf8U, 0xbe8d81b9be39e4c2U,
  0xbd9755a8be943ad3U, 0xbc1709be3e8e70eeU, 0xbdb2e9ed3e701a3aU, 0xbe2f2cd1bd7d51edU,
  0xbe185c2b3e31155aU, 0xbe88678a3e4f775bU, 0xbdf4f2063dbad255U, 0xbdba2ff73d076d95U,
  0xbe5905783e378a12U, 0x3e633c71be189451U, 0xbe5a3d4abcc5f5aeU, 0x3cdc08d0bcf03390U,
  0xbe807c8cbe9aa782U, 0x3d27f5183d96bac6U, 0xbdd033c63e7ca901U, 0x3e3cf4eebe174697U,
  0x3da22018bcfb98c2U, 0x3ea67b4f3e24df37U, 0x3dc30f01bd1b510bU, 0x3dfde7663c58ac22U,
  0xbe1479f33c95d4f8U, 0xbdba3c45bc1086c6U, 0xbd2f095abddf71a6U, 0x3e577e5cbbbb0761U,
  0x3d52996c3e852336U, 0xbcd254903ec84616U, 0x3e571ddebecf7038U, 0xbd80d1b7bc83ca83U,
  0xbeea41513eb6eda2U, 0xbe8d7a31bc1aadafU, 0x3d9d7c78be5e42dcU, 0x3d0f73cabd98d428U,
  0xbf10caab3dde6da0U, 0xbdaa75e83e8d9e0fU, 0x3e5f1b893c4113a6U, 0x3e328f6dbdd699d7U,
  0x3c8bcdccbe069c69U, 0xbe70ef94bbc88361U, 0x3eb8564eba81848fU, 0x3e0c2c42b8d1d800U,
  0x3ccd58f7bdd793fcU, 0xbe14604cbe37a444U, 0x3e8438b3bd9cda95U, 0x3c90ed993d93315fU,
  0x3d5cd3f53d1760daU, 0xbeb26244be33dc67U, 0x3d8cb640bf18e5abU, 0xbcd715ed3e5e5170U,
  0xbd31f4623d23795fU, 0xbe178363bd0a13beU, 0x3dab7215bf45862bU, 0xbe4799f73e8ee75fU,
  0xbd841bc23d3f7811U, 0x3d9103f13d873db6U, 0xbc82e45abe94593eU, 0xbe6c80a93e30bd08U,
  0xbc5f81f33e2af6f9U, 0x3deccb823e442a61U, 0x3cc668babca4e26cU, 0xbd8e1ffebc89e85fU,
  0xbd7b4a2f3e5a6c8bU, 0x3e338f213df117d2U, 0xbe1c4dc93dd121f8U, 0xbd9627ebbd93f204U,
  0x3c75825f3e7bda7bU, 0x3e7452b2bdbd3932U, 0xbda867f93e43aaf5U, 0xbec21c09bbe3fce5U,
  0xbd1188d1be0b76a5U, 0x3dda0cd6bcd88f06U, 0xbe8b08d43dcbaeb5U, 0xbe6457963d4c7a8dU,
  0xbe08effbbdffb584U, 0xbdbd62d6bdb7c1a0U, 0xbe4668783d57e764U, 0xbe481bc73c0d836cU,
  0xbe235e97bdd13552U, 0xbe2a5bafbe476f9cU, 0xbeab5e56bd38163fU, 0xbda1cd703e3a1b7eU,
  0xbe9ff53abf063c97U, 0xbd8b0c76bdc5c521U, 0xbe943153bd511299U, 0xbe72dd083cd00ed1U,
  0x3e697386bdaa17ddU, 0x3ebee913bed66064U, 0xbd8d4c2fbea4e4e3U, 0xbcf4bcd6bd17734eU,
  0x3e870939be31d8beU, 0x3e95add5be67f243U, 0xbdb091dcbd670abdU, 0x3e5f1dcc3dcc1f59U,
  0x3e8c68113c85cc09U, 0x3ece58a8beaa36ffU, 0xbe0678af3d6194b2U, 0xbe5ff5b73e434704U,
  0xbed2b0473d31755eU, 0x3e97b48d3dd21bd0U, 0xbe1d70c53e0b0a55U, 0xbcd1865a3de4b0baU,
  0xbf02046d3dd84c45U, 0xbb2cfb663d25ae32U, 0xbe40620b3e8a0528U, 0xbd00823bbd4386d6U,
  0xbe8cf6fa3e4c26a5U, 0xbde68dd3bd5f3e99U, 0xbe73a4983dcf0f91U, 0xbdf58bfcbdcdfcdcU,
  0xbe143ea93e4aaa6aU, 0xbd2fa55fbd08ff10U, 0xbe0613823d0f1001U, 0xbde2c283be098e03U,
  0xbe50a12f3c752c85U, 0xbdaee0103d6d0e6aU, 0xbd3de41fbd9ac5f1U, 0xbc791992bebe373dU,
  0xbe38b4623d43b40aU, 0xbae5a3ab3bf6eb42U, 0x3df6fdcb3e219b75U, 0xbdb436f0beb84d30U,
  0x3c471b3abbad7f98U, 0x3d8e392c3d252e16U, 0x3db4485cbd838dbfU, 0xbdaba9f5bdf697deU,
  0x3c4bf3cdbeb18d2aU, 0xbe2ccd58bcc2c2f7U, 0x3de6fadf3da2f818U, 0xbd82f419bd195acfU,
  0xbe16c561bed36717U, 0x3c499e3d3be0e335U, 0x3e358d64bda7a84aU, 0xbd6266e7beb15d70U,
  0x3dbff1ee3c47cf9fU, 0xbd4c0ab13d3f2e19U, 0x3e9446debe051270U, 0xbf2753483ca17165U,
  0xbc4a21773da1b56dU, 0xbd5faf8dbddc5e3aU, 0xbbb8ce593da84ca3U, 0xbefbb7223dce143fU,
  0xbdda3a00be2dad0aU, 0x3d9a9fd23e5d6a41U, 0xbd234c913cce4e2dU, 0xbee110083dda76a2U,
  0xbe8ab676bd1d63f3U, 0xbe86afd3be07ef2cU, 0xbf1c673c3e29d49eU, 0xbead8eef3eaa1dcaU,
  0xbdc861953ec3c6f1U, 0xbdc419f6bed8aa8aU, 0xbf0bc8d43e03239dU, 0x3e5176183bdc612aU,
  0x3d7b44303e201553U, 0xbe38190abe2c42a8U, 0xbe036dfc3b01b09aU, 0x3e0bc9cd3dfae884U,
  0x3d0407343e7a87d8U, 0x3da8a532be1ef33cU, 0xbe07daac3e105e47U, 0xbe0c43acbe80bbaaU,
  0xbe5a6de73e3daabaU, 0xbe185d7cbe239559U, 0x3d6eae2b3d8c5fd9U, 0x3ccd30b6be3f5bceU,
  0xbe2bb1603ea5657dU, 0xbe1938843cf6f826U, 0x3e8d255fbe39ef0eU, 0x3d52e3debeadde5eU,
  0x3e0b7d67be6510caU, 0x3ea98b1cbe6a98b5U, 0x3e883ff2bd102dd7U, 0x3d8471c7be1e6247U,
  0x3d69cd6ebd9f0e70U, 0x3d9401a03d8b8e5cU, 0x3eb130553df309b6U, 0x3e194c213dab8357U,
  0xbe11503dbec00415U, 0xbd7633583d9c9fc4U, 0xbd2cd4253d88b4f4U, 0x3e733397bf11e380U,
  0x3e92877bbdbf895fU, 0xbd4cc93c3eb3a5caU, 0xbf00af2dbe2ae5b2U, 0x3e9c44f3bcb7688fU,
  0x3ee37952be7dd684U, 0x3d88e4053eecee95U, 0xbdb8b4c23c9a2277U, 0x3e8ba60bbe0f9575U,
  0x3d9040ab3d8a5f00U, 0xbd270db33ec57d4aU, 0xbec0dea33ecb09d9U, 0x3edef603be507ba7U,
  0xbe0202243e8d0575U, 0x3da72c3f3e8ccf0bU, 0xbe7f625e3e28c1bcU, 0x3de2cb6cbe7e0eccU,
  0x3e7e436d3eb8fcd2U, 0x3dcb3c2bbe266190U, 0x3dab0f47be382a11U, 0xbe98fe08be96fcfdU,
  0x3ded742e3e8c09e3U, 0x3dafe1fcbee2e411U, 0x3e8ee3cb3e9914bdU, 0xbea6708abdafeedeU,
  0xbe458dd03e83f44bU, 0x3dc6443cbecd2e56U, 0x3e8114c5baa2d72cU, 0xbeb7cebbbe6f21e8U,
  0x3d27d201bebb09bdU, 0xbdff01883e1dd61dU, 0x3e681bd73de9e3f6U, 0xbe20f2f3be3c47aaU,
  0x3e36b59fbe92f012U, 0x3cb14221be206c59U, 0x3c822e82bd4c4df0U, 0xbe0f1564be2fed36U,
  0x3e9c03de3dbf041eU, 0xbe2138743e2b3c69U, 0x3d53be2b3e2bca17U, 0x3e1a1a4dbded5609U,
  0xbd4d85bb3c116548U, 0xbcd7a504bd5392e6U, 0xbe9dd040bd63d798U, 0x3c05578cbe68281fU,
  0x3e17b3de3c9242feU, 0xbec05b0ebe94a325U, 0xbeecee1dbe631c66U, 0xbecd4952be2afcbeU,
  0x3ec339e03d249635U, 0x3e1541283d7ac9d9U, 0x3d5ac83f3e9bb287U, 0x3e91a5afbd9ae0dcU,
  0x3e63c805bda7fed6U, 0x3d6884b63e759b54U, 0xbe9df4553da1e301U, 0x3ed5b473bc4a36bbU,
  0x3e8956393e85df5bU, 0x3dd98f543d79052eU, 0xbe890cb83dec1139U, 0x3df7a049bdd888cfU,
  0x3e1f99633e551258U, 0x3da567a8be127a75U, 0xbd345987be8d4f4eU, 0x3d9e4664bd377621U,
  0x3a48f7b33dfb104cU, 0x3d3cdb1e3e0b9c16U, 0xbe524628bd35e09eU, 0xbf4190bd3e1d52a7U,
  0xbd464a913ea61244U, 0xbd13b65b3e29eca3U, 0x3dc81c64be3bf245U, 0x3dd562fd3e379b0dU,
  0xbac1d7923e6b36ecU, 0xbe82dae8bcfe5709U, 0x3e2bbc0a3e18da38U, 0xbe69ebc83dcf738dU,
  0x3c9d68823e2d91dcU, 0xbe46de563df49f5cU, 0x3d1926563e08c192U, 0xbdd1a3483cc78b55U,
  0x3ea2c7ab3dbbd32dU, 0x3dad1f9fbe7903c9U, 0xbdaa94793e65f158U, 0xbc079eb33dba15b1U,
  0xbce68ef1bc640e9eU, 0xbe95d7b9be67c50fU, 0x3e2f2a4cbe5bb734U, 0xbcf8ead73ebc14c1U,
  0x3e44ff6fbea9bbbdU, 0xbe1f0dc53dcd86a8U, 0x3e524819be1d9e37U, 0xbe49e3c13e4bcf5cU,
  0x3f10be6a3d396490U, 0xbe4949f9bd82c5c4U, 0xbd8822c3be9eaa29U, 0x3d1b503e3e9baa02U,
  0x3c9c92fd3e33b248U, 0x3dbf4084be8bcecaU, 0x3e3269b83e756d93U, 0x3ee921a7bd5f1369U,
  0x3e3178d4bed6af95U, 0x3e252faa3ddbba35U, 0x3d298b143e025bafU, 0x3d813081bdd7adf3U,
  0x3ebe0f0abe8ec970U, 0x3d8f35723e2651d9U, 0x3edaa95bbb699914U, 0x3ea41a05beaba9ffU,
  0x3e04d1ccbe30758fU, 0xbd9ca011be3bee1eU, 0x3d05189f3e22f23cU, 0x3d7ab959be986de8U,
  0xbf03a18bbea8080eU, 0xbdcb9fd9be87fed3U, 0x3cda1e51bdebb0a9U, 0x3e4c7c2dbd7a9ef8U,
  0xbea4eef93d457402U, 0xbcc59a9dbe78d085U, 0x3c91b9a3bda2fa91U, 0x3d6d321bbd1e5b56U,
  0xbe4ac2de3eb68e86U, 0xbd45f517bd145e65U, 0xbe88feb13da6196aU, 0xbebf9ac9bcf2bd15U,
  0xbe755a773d761ac2U, 0xbd9659dd3e38fe3fU, 0xbe8e5bd83e81efe4U, 0xbd06cd023daadd9cU,
  0x3e444f373e41f421U, 0xbe68abbd3e02bed3U, 0xbe41a5bf3de0019cU, 0xbe991de73cacc15cU,
  0xbebad7d93e983f9fU, 0xbd76745d3eac55e9U, 0xbd9e2072bd7734afU, 0x3e89d0fcbe84cfffU,
  0xbd111b74be91d8bfU, 0xbe26379f3e1ea819U, 0x3eaa9e79bd1b5f75U, 0xbe65ab863e99a7e1U,
  0x3f0f6fa13c3709bbU, 0xbf0183e5be29f1f5U, 0xbe45d96ebe58a36fU, 0xbee324fc3e40e2bfU,
  0x3e4b42eebd12bc2eU, 0x3dfa987bbd8b1854U, 0xbf31de653edf532bU, 0xbeca2799bd5eafa6U,
  0x3de6bd0f3d616841U, 0x3e0b99d9bd8ed82aU, 0xbeca22e43ed7fcefU, 0xbecfc254bdd556b0U,
  0x3dc6cda63b5c2d49U, 0x3dff7132bd93e5c7U, 0xbe1b3acc3ee10346U, 0xbedb2b9dbe3a58f2U,
  0x3d89bc1ebd267901U, 0xbd674cc3bd325716U, 0xbdaed0db3eb039d3U, 0xbf0ac9b8bc959fc2U,
  0x3d5a9a213d42e296U, 0xbe307e9cbd746a59U, 0xbda87af03dba4322U, 0xbeb015ad3cdfc458U,
  0x3cbfec8dbd8a6d7bU, 0xbcc2d437bd5f1abdU, 0xbd81d4fa3cdc5061U, 0xbe784dd53d01eca5U,
  0xbd317fa4bd8db9f3U, 0x3d7cd365bd56bbb4U, 0x3d083c38be7420cfU, 0xbe9a9d4e3dc01cf7U,
  0xbda062c5bdbe3d10U, 0x3d18d925bd868e6dU, 0x3e022808be95432dU, 0xbe82dbd03cf31ce5U,
  0xbd1d4249be22cab7U, 0x3d2cb31abba8cf83U, 0xbca4a33fbe3acb5eU, 0xbe8dd95ebcb70b53U,
  0xbe1b9a65be51d79eU, 0x3bd5b7b7bd046d4dU, 0xbcd910493cb6271dU, 0xbd78b375bdd9a294U,
  0xbcf85d4dbe1a3f5eU, 0xbc83c259bd41a119U, 0xbce5395b3e3c2911U, 0xbde3706bbbbd074fU,
  0xbe13fd86be10d0daU, 0xbbd14357bdb54679U, 0x3e1817e13e44d7bdU, 0xbe9d7e093ca4e289U,
  0x3d1ecf523d7836f0U, 0xbe08f95f3e1dc733U, 0xbf2059153ec2fa25U, 0xbe5be936be7f5fd0U,
  0x3deb437d3e629b1fU, 0x3daf8ca9bd59da95U, 0xbe89078c3e494629U, 0x3d8e11f2bdf88ecfU,
  0x3d8ecf1d3ddad93fU, 0xbc1fe180be191051U, 0xbd925df13e239786U, 0x3e495528bd8a5062U,
  0x3b9438213e0e7f94U, 0x3db81ee2bd982e59U, 0xbdb48b2c3da8be30U, 0x3d42027a3d82e4e1U,
  0x3e085c1a3e440122U, 0x3d81045b3e041031U, 0xbdbab1e53e301454U, 0x3e68bfcdb9eaf932U,
  0x3d9248db3e0b2129U, 0xbe2cfc78bc8571e9U, 0xbdbd1b873e3cd70cU, 0x3e3a5fd4bdf1ff41U,
  0x3d9306553de74944U, 0xbe0ed5943cf5fc18U, 0x3d1d2e793da788baU, 0x3d99b980bcb64304U,
  0xbe96ed3cbd8ce623U, 0xbe0d2d713ce2490bU, 0x3dd18a43bbf72f14U, 0x3e8b02933c95bfafU,
  0xbe635f76bd60672aU, 0x3bd138d23dd80531U, 0x3e8a27dfbdb9cd54U, 0x3d3c732dbe381f0fU,
  0xbd7144e0bd33be9cU, 0x3d8c9ddc3d9b18edU, 0x3e9303bf3e2a8d3eU, 0x3cf2399fbe0cc97dU,
  0xbe0a9461be1f0cd3U, 0xbe88e7113d874752U, 0x3d93a6fc3e0c4159U, 0x3d35de9a3d074f1fU,
  0x3e003be2bdd12bbaU, 0x3c25d9673d6f301fU, 0xbe2f904d3e438718U, 0x3ce76e8abbe1fbe4U,
  0xbf09ca74bcf24ad0U, 0xbddb80793e02d251U, 0x3d0cdeef3e82738cU, 0x3d1e4ef93d91ca01U,
  0xbe117561bd8aac6eU, 0x3e09c054be1b8d09U, 0x3e8c8e4d3e34cb50U, 0x3df2f2d0beb40ee0U,
  0xbd6f5f78bd37d600U, 0x3c8d4ea4be491fe0U, 0x3e97c462bdedaf83U, 0xbe695006bea4bc9cU,
  0xbe2941c93d8e4828U, 0x3c8bca803d73775bU, 0x3ea95642bd24305cU, 0x3eab50cfbd99e308U,
  0x3cc3f7c83dcda619U, 0xbda0e439b875fad4U, 0x3eb5d161be4008e7U, 0x3e07d02dbdfeaf7cU,
  0xbe7e4c1bbdafac5aU, 0xbe8b8297be27627dU, 0x3e1b839bbe1caee6U, 0x3b747edebe9024adU,
  0xbd5fd6cfbc94f9afU, 0xbe13b6f03e0439a7U, 0x3de9a2b0bd93b15bU, 0x3d911535beb9f7f4U,
  0xbe4619a6be336761U, 0xbe93c1bebd999dfbU, 0xbd53e496be4baffaU, 0x3b93d538bef40b28U,
  0xbe3241e1be12cbf3U, 0x3db410113dae13b3U, 0x3c1ce4833e864cbcU, 0xbe937265bec30ffdU,
  0xbe64b671bd4a1b6fU, 0xbbcb06253dd11c31U, 0x3dfecbe83da13c60U, 0xbbe6c448be4e8864U,
  0xbeb894b5be40850fU, 0xbdfdb93abde47c38U, 0xbe797ee2bd7083a5U, 0x3ebd52a03ea7dd0bU,
  0xbefaa8723e99e39fU, 0xbdc8b6f73dd3be2bU, 0xbd71dfa0bdc7e850U, 0xbe6ce29dbd6995f8U,
  0xbe74ff123e6b7613U, 0x3e6cf798be939212U, 0xbe9e204d3e24239cU, 0xbdf100d0be1a700fU,
  0xbc1f07cd3eba112fU, 0xbd5aac7dbe8d7477U, 0xbd11a102be6f2471U, 0x3df6bdd5b98c7a5dU,
  0x3c00606e3e6dd3d6U, 0x3d6a2b1dbe8497b6U, 0x3d5eee78be238eaeU, 0xbe24e594bcd4fb4fU,
  0x3d5b0c613e949dd1U, 0x3e402c27be80ce6cU, 0x3e3bb90ebd9a65b0U, 0x3e137c463d9ba3f2U,
  0xbe76d5b63d19a641U, 0x3de175523dd99f4aU, 0xbd96cc0ebe670419U, 0x3de43d4b3d54a8ebU,
  0xbe65de8b3e91ce12U, 0x3ccfbd223b136cbbU, 0xbccfad083c27b007U, 0x3dedbec53d68cf56U,
  0xbe816e553e86aa51U, 0x3d818d8dbe570c30U, 0xbe305647bd585d61U, 0x3df182fbbd9b1ec4U,
  0xbe0b919a3db1903cU, 0xbe30cd823df9c851U, 0xbe7e1f44be75e586U, 0x3dd8e27cbca83af8U,
  0x3c38abc4be83b733U, 0xbe505d163dd8b6ceU, 0xbe8c1e62be123745U, 0x3dc82d96bc56c017U,
  0xbdb9d27fbe8c7d11U, 0x3da9ab7b3e41f67aU, 0x3be8a26dbe26e10eU, 0x3dfadbe03e689c8dU,
  0x3df80c2abe6e8a2bU, 0x3dc37d623eab4febU, 0x3c22e1bd3e9c625bU, 0x3e24a2fb3eaccb73U,
  0xbe2e926c3d72516bU, 0x3e977a8f3dab38f7U, 0xbd8d56e1bebf8ebcU, 0x3e239dccbd472420U,
  0xbf49d5fa3d8c1d71U, 0x3e266e283e5fa3bbU, 0xbe1abc31be4ec605U, 0xbf045a633e913781U,
  0xbe4261afbe861174U, 0xbdaceccb3e4fe81eU, 0x3b01a9c0bd049347U, 0x3d928d453c82a5f9U,
  0x3d0456dd3bc373e7U, 0x3de9d5ddbcb6943dU, 0x3dceab753e2a665eU, 0xbe90f9493dad4cc3U,
  0xbecac81cbebdf17dU, 0xbdbc699fbdba0fb2U, 0x3e16e7fa3e9fa4d3U, 0xbda637c53e073421U,
  0xbe9417bfbc109240U, 0xbe04fbdebdc0912eU, 0x3d98ec2bbdc0e813U, 0xbd828837bde5ecc6U,
  0xbeca5d743ca26572U, 0xbeca40513cab1f72U, 0xbbea21c9be04bb72U, 0x3ea7878cbde1cc9bU,
  0xbee69c28be7e4edbU, 0xbe9114d2bde0031fU, 0x3dcd6a25bd94f691U, 0x3c528470be6df705U,
  0xbd48ea41bd3d17e2U, 0xbd64b2bbbd8a44a3U, 0x3e2d396fbc2acef6U, 0x3e233debbea30100U,
  0xbead62f9be0e390aU, 0x3d89d5c1be23ce40U, 0x3e163fd7bea050abU, 0x3e829857bf1f70f6U,
  0xbe2cd186be986a3cU, 0x3d6a6c223d96f4ecU, 0xbd8d01c63e2b9f5cU, 0x3ec92781bdfa2f07U,
  0x3dc534d9bd9a7d7eU, 0x3ed3ad833d1e510bU, 0x3e47436abe58c983U, 0x3e3a32f6bcc9a081U,
  0xbef6623fbe046897U, 0x3e8e6b7dbcc50613U, 0xbdab52ff3c8bab6bU, 0xbdca4ef83d7826d5U,
  0x3d8d8665be84a303U, 0x3e52418b3e1c8123U, 0xbf44c89f3c4f70b0U, 0xbea5a3e53e61e9c6U,
  0xbd4a678bbd5872fcU, 0x3e3532e2bbbc1e5cU, 0xbe641c443e2cfeabU, 0x3ec87f1e3e6acd65U,
  0xbe4eaf57bd03b051U, 0xbe519f733d650033U, 0xbcf05fb03e83064dU, 0x3e8cba293e176ed6U,
  0xbea57134be76b072U, 0x3e460aa2bdaaec37U, 0xbd9af1a43e066757U, 0x3eb9318ebdebb675U,
  0x3da73990bb9df94fU, 0x3b74875c3dbe98fcU, 0xbe63ec483d6af343U, 0x3e87c486bd89edb4U,
  0xbe9fec12bd9ed7a3U, 0xbe0e607dbe2b3177U, 0x3e3f8d92bdc09285U, 0xbcfab32cba5a9389U,
  0x3e50b3f73e020c93U, 0x3e0f34dbbd9cf9ccU, 0xbd6c37763e56ab3dU, 0x3e0c917d3e085949U,
  0x3e217b063aeac523U, 0xbe0b5dce3df2e0acU, 0xbd9cb968be4ce67cU, 0x3dd1768b3db9ba8eU,
  0xbea406323df2d4a2U, 0x3d7b8c8b3df9de0eU, 0x3d93baf2be010f21U, 0x3e3bc94f3b289563U,
  0xbdad999cbe181255U, 0xbe7b74493e90cf25U, 0x3e492c3bbdbd9a05U, 0xbf1533a3be62f8a7U,
  0x3eb4edc03e0d3713U, 0xbd4f36e43db69e8eU, 0x3e2e2ffa3e775e32U, 0xbe7944913e3ac6fdU,
  0x3d40b661bd5a34d7U, 0xbeba0ffb3d77be20U, 0x3e6ee173bd9fdc52U, 0x3d828b11bcf8a36fU,
  0x3dae851a3d3c33d9U, 0x3dd467553ddf1af1U, 0xbd2441e73e0bea04U, 0xbf6cca613d86a96cU,
  0xbda94d25be0625a0U, 0xbdb4d2c73d80ae82U, 0xbd86dba33d62518cU, 0xbed81638bd6a994bU,
  0xbe609f48bd21b2a3U, 0xbda437333e2ba8acU, 0xbdc62cc9be1a0266U, 0xbd8e029ebe30ce86U,
  0xbf023eddbdf8bee3U, 0xbeaaec403d35673cU, 0xbe78d2f8bdff287eU, 0x3b9ce16bbdbd96c0U,
  0xbe7a2e5e3cc44c48U, 0xbe93d3a9bd5f43ddU, 0xbdd2916fbe72f68eU, 0x3d38a24abcc74a41U,
  0xbe43da3ebcce91fcU, 0xbebdfd733dcb3586U, 0x3cd26e69be46a773U, 0xb722f0b4bd066ac8U,
  0x3da750c2bcede7c4U, 0xbe0a1fd9be4b9301U, 0xbcb1bac0bea5ea26U, 0x3d365da03d3cc616U,
  0x3e48c9cdbe3cea17U, 0x3db71eb8bf0f260dU, 0xbb295b31bee81c73U, 0x3d5fcc753dc4b509U,
  0x3deb07a9be44770eU, 0x3e65a0e6beb17c0dU, 0x3cb79d6dbf0a5a22U, 0x3d9d5c553dfa77e0U,
  0x3d1f7105be5c7656U, 0x3c4d961ebdcb992cU, 0xbc929e39bea53881U, 0xbda78b7d3e0835aaU,
  0x3c8e3b5fbcd4e9e0U, 0xbd7c49533d0a8b4dU, 0xbce45b63bebdae97U, 0xbf0112033de5ceeeU,
  0xbca961b4bd2a6a77U, 0xbe1dcd6f3dde0adcU, 0x3d16a773be78da4fU, 0xbea48a943dd40900U,
  0xbd8686f0be3692b0U, 0xbd00972ebde71d52U, 0x3de9d51e3e3df75fU, 0x3dc8fe5dbd9316edU,
  0x3d3622c03d80d65aU, 0xbe1b29dc3dfbab2cU, 0x3e45d8053ccef4d0U, 0x3d621b893d0d9dadU,
  0x3e30f71fbd905efcU, 0xbe962dbb3e3d97ffU, 0x3e8b01253e14b4a1U, 0x3c796f9cbdfa131eU,
  0x3c7819e0bdb86ea6U, 0xbe39b18b3d868e26U, 0xbe436348be5bf3f1U, 0xbde87668be17287cU,
  0xbe4465b53cb53919U, 0x3df82f1e3c2889faU, 0xbf30466fbec414c0U, 0xbe5c79243e6cd9adU,
  0xbdeb96653dca63eaU, 0x3d335d2b3e4b8397U, 0xbecc89fc3c9ac81bU, 0xbe507fc33d5af1b3U,
  0xbe8465593ce0b9a8U, 0x3a75b2bc3e2faabfU, 0xbe8d1e7c3dc11bd9U, 0x3ca2b2d13e01b80aU,
  0xbe9ae43d3e0946f0U, 0x3d2a7e4a3e2f4c4fU, 0xbe0a778e3ea819eaU, 0x3d3b9b633d2a0e49U,
  0xbe6604243cca64cfU, 0xbc45ef6bbd2c724eU, 0xbd7d8f163e4e6102U, 0x3b6e6022be185e04U,
  0xbdd4a49b3e1b70c7U, 0xbe27d3b8beafebcfU, 0xbb0251d73e865e30U, 0xbc347affbd86918dU,
  0xba6f95ae3e59356bU, 0xbe262577be7285b3U, 0x3e0d87a93df5fa5fU, 0x3b9885debe1f6d5dU,
  0x3e29483b3dd0768aU, 0xbed7cd42be74dc5aU, 0x3e0d2b573a7f0214U, 0x3e262a21bbf8e260U,
  0x3e04091abe4c373fU, 0xbdeb04e2bc820501U, 0xbe9cb6613e3e98d8U, 0xbd836e753e38fcdaU,
  0x3d40e858bea4ceb3U, 0xbdf44f8abcdea4daU, 0xbaa352d43d103126U, 0x3e8035c3beb28555U,
  0x3ea5b72abefbfad5U, 0xbe4463053dd575c8U, 0xbe98945c3e3c858eU, 0x3e96e9d5be913114U,
  0x3edd0447be7339ecU, 0x3b82dc243e923f89U, 0xbea2ac9dbe80253cU, 0xbe8cec3bbd46f83fU,
  0xbd045a0bbd791f81U, 0x3d740caf3e1d1b8bU, 0xbeb68c71bdff8e8bU, 0x3e8aa75fbc916aecU,
  0x3e4ab6433b06011dU, 0x3de4e94a3eadb6b2U, 0xbe01e4bdbc883516U, 0x3ddf61923df50861U,
  0x3db3c9ed3d0b7d7bU, 0x3e4a61d03e821027U, 0xbe5b0735bdb8ed57U, 0x3e8fd0bebd474233U,
  0x3da0a4c8bdbb958eU, 0x3e4eb4943d9281a3U, 0x3dc301f8be030313U, 0x3ecef2743d779ff2U,
  0x3e47a6b1be27ef19U, 0x3db25aecbe5afcc3U, 0x3e766b00be3da59bU, 0xbd1df4ce3b8c6e7eU,
  0x3e4a21e5be31e797U, 0x3e405f20be88cd05U, 0x3ec975f4be102ebcU, 0x3e04be49be0b01ddU,
  0x3e049384be4f1bd8U, 0x3dfac869bd0a0ae1U, 0x3edd8cf43c8129adU, 0xbd5bf2aebd01b2b5U,
  0x3e08f4c8be905387U, 0x3e9aa9b1be218e9bU, 0x3eb110c8be4a20c8U, 0xbe6e8b72bd5b91a0U,
  0xbdf36953be70fe7dU, 0x3e18ce413e6009ddU, 0xbeb963963ca18ab6U, 0x3ee008e7be8bd0ffU,
  0xbdcd6153be31d6c8U, 0xbe3d3dfd3d90d46cU, 0xbe33aceabb63c816U, 0x3e9c6e78bdb2cb2dU,
  0xbdcdf8da3e9b1739U, 0xbe4fd5793e53719cU, 0xbd3257afbe372c51U, 0x3d904d97beeb6f3fU,
  0x3dab151b3e72b35bU, 0xbe903eaabc52a426U, 0x3ee889ec3e48193dU, 0x3bcedf3fbf163d06U,
  0xbe3f133b3e9361f4U, 0x3d9cc222beb79c7aU, 0x3f04f22fbe23d986U, 0xbe6064e8be92a091U,
  0x3e48c92e3e497f5dU, 0x3e672e383e6a4bceU, 0x3e3a3fe1bdcdc167U, 0xbe9acad13d08c79fU,
  0x3e435c563e061468U, 0x3e6dfae33d44ed68U, 0x3e933fc6bd472105U, 0xbb78f3203d8423c7U,
  0x3e68ab5cbc61ad55U, 0x3ec0866b3e01ea63U, 0x3e0d318b3dbaaa19U, 0xbe93da073def1bc9U,
  0x3e883a88beaffe20U, 0x3eb14794be1a339bU, 0x3e5361cbbd6a5983U, 0xbda797c13e1b7986U,
  0x3c010f08bf17d137U, 0x3e17d2cb3d8ccf45U, 0x3dc1ae993b5d0a9eU, 0xbd2d73113ec08215U,
  0xbe27d4c1bed57de8U, 0xbe6ca4593d700a69U, 0xbd2765ffbdb06d02U, 0xbcbfe2d23e84b9c1U,
  0xbe0c7594beac6e27U, 0xbe362cb83e4e30fbU, 0xbe1e2a2e3e1e25a6U, 0xbdf344883f0d192eU,
  0x3ebb7b64bea27030U, 0x3e6d14463e160291U, 0xbe887d363e4dd3d3U, 0x3e771a7bbea8a8ddU,
  0xbdce156dbe7924f9U, 0xbe4420ec3e31c40aU, 0xbf04e39ebe691bfaU, 0xbdcd4451be07cbcbU,
  0x3e468055bd2e33cbU, 0xbdc5bbf93ed54cdbU, 0xbe5788c83eb07ab2U, 0xbded70c2be1ffed4U,
  0xbd5195e5bc9bd143U, 0xbe2a5da7beba0342U, 0x3de24e563de63240U, 0x3d70aa7f3d482f48U,
  0x3b835faebebdf9b0U, 0x3c03426cbe6232feU, 0x3e49e6a23e3470edU, 0x3eb14a4e3d891c01U,
  0x3e458008bdae9fe1U, 0x3e562421bdcdf913U, 0x3e8e76283e199864U, 0xbd8d6bd0bd0bc944U,
  0x3e956fbabebcfb1eU, 0x3df99ce33e252454U, 0x3eb22bef3ea28478U, 0x3d828b5abdecc966U,
  0x3e53286dbf20ea10U, 0xbd46b8ccbbcb2db4U, 0x3c5a87843ea1fbf7U, 0xbdd2e6d03d8c963aU,
  0x3e32bdc6bedd5d73U, 0x3e5156363ea19b65U, 0x3d92bab83d6a719cU, 0xbd1d7b86bcd3b5a4U,
  0x3eb4820abe7f7f21U, 0x3db29afd3ec379e9U, 0xbdc1f345beaa8f74U, 0xbe4f50e13e61c7a9U,
  0x3ec4b6a4be8978b1U, 0x3dabb6183d643745U, 0xbd975a59be607679U, 0xbdc95e423e429a57U,
  0x3ea78551bd4d2d4fU, 0xbdfce7223b88d4dbU, 0xbe663f57be7bb377U, 0xbe65b229bd854e29U,
  0xbe43c1943e8d2f32U, 0xbd85a7dd3e5108e8U, 0xbec2bd463e3eaa9dU, 0xbe344da6bdfe180bU,
  0x3c6739cd3e0852e6U, 0x3e36f0f6bd3be078U, 0xbe944871bd60e4c5U, 0xbe8aa6dbbef5044bU,
  0xbefc87f4be0976dbU, 0x3e67a8b7be7c9e32U, 0xbf01fe6abe3dadbdU, 0xbe77eb98bdc2d0ddU,
  0xbe4aaaafbeb88e3aU, 0x3ea283babe85a1b9U, 0xbef54aa63db7d4baU, 0x3de1a9083e299597U,
  0xbdd6ed8b3e81f296U, 0xbe3f5596bea35a04U, 0x3df9cb613e4b3203U, 0x3cc7386c3e8c61c2U,
  0x3dec4b3dbe8676c0U, 0x3e1d1717bdefe10aU, 0x3f07de0e3dcfb200U, 0x3e6cc9173d8bbe45U,
  0x3e303ca7be11b538U, 0x3e5d64f1bc29ba47U, 0x3ef8ca063e106091U, 0x3dea99073e823357U,
  0x3e90eacfbe668724U, 0xbd249fa53e3b2313U, 0x3f0ecb403e2d8949U, 0xbd39e105be0d15b5U,
  0x3e2309bbbe8deb52U, 0x3d86fcc0bd9eadcdU, 0x3d9d9d7c39d1f1a5U, 0xbee6604dbe1432daU,
  0x3e2cc27cbe9e5ff8U, 0x3cf9de383d17c30cU, 0xbe660796be246931U, 0xbe38de6a3dbce46eU,
  0xbde3bff43e53a871U, 0xbe1368683ed39567U, 0xbe3e5707bdc3bff3U, 0xbe931c3d3e4833d1U,
  0x3e70358bbd012535U, 0xbe25dd393eb2182fU, 0x3e1900f1bddce038U, 0xbe00605e3e2a3b57U,
  0xbd5a7cc2bd07aa99U, 0x3e0893ff3abdfa0fU, 0xbde76a643d1fbb2fU, 0xbee12848bd923149U,
  0xbe966c423d932365U, 0xbd796b8b3c584fc1U, 0x3e4a86e3bb8e4c1aU, 0xbea7710e3cb64adcU,
  0xbe13cd55bea3a21fU, 0x3e1e619c3dfefd49U, 0x3deb35933ded28efU, 0xbeabab813ca0373aU,
  0xbdb72b9a3d0a4fd6U, 0x3d5c6a323e50f3ddU, 0xbc6f171bbb522a43U, 0xbe2ba03f3d8a6713U,
  0x3d5db0bf3cdd5aedU, 0xbcfdea59bd18a926U, 0xbe360df8bd5972a7U, 0xbd9552393d99acabU,
  0xbce0897cbd96abccU, 0xbcde7a8dbd58e1afU, 0xbe85563e3d01e96fU, 0x3cb7d2e63dd5e6f5U,
  0xbd1f09923c8fcc07U, 0x3c0e2c52be545247U, 0xbe365f77bd488600U, 0x3d4f46913d2234a8U,
  0xbe0843353e17f372U, 0x3e20bf0dbe778313U, 0x3cd341c1bd49cc85U, 0x3d694a5ebde93324U,
  0xbc1dcece3de90d4aU, 0x3e9feeb3bea403c7U, 0x3d66a6d2be63a42fU, 0xbc856729bf12d838U,
  0xbc91b56a3e1aa09dU, 0x3e45f67cbe38c687U, 0x3dc3edefbe417b96U, 0x3d66867cbf2b87f4U,
  0x3caee8943e0da25aU, 0x3dfb8376be47bedbU, 0x3e2178ecbebb4ad4U, 0xbdc1aec9be8bdba5U,
  0x3e030c293d523398U, 0x3d9a6e2abdc5473bU, 0x3e65705ebed037cfU, 0xbe332aa4be89b654U,
  0xbd3c50d3be10a7e0U, 0xbca22d4cbccba5f4U, 0xbe01b5bf3e436793U, 0xbe0fb1f3bea83f88U,
  0xbd5ea14ebdb55c52U, 0x3d93015abc62e8c2U, 0xbf084f083e39b0fbU, 0x3e50cecfbe1b02f3U,
  0xbe623d8d3d16501bU, 0x3ddd37523e17eba4U, 0xbe87aef73cd68e07U, 0xbc4ffeb1be877324U,
  0xbea42a68bd6740a3U, 0x3e4527aa3ca56a32U, 0xbec124a93e7c8658U, 0x3d498a8abecc804eU,
  0xbe9c84dabcc4d970U, 0x3ddf2bb3bd1d3d8fU, 0xbe9f53a83de20abaU, 0x3ddb2cf63daec202U,
  0xbee9a9f33e70946eU, 0x3b9bd0eb3e32c59dU, 0x3db7bd583cc73d20U, 0xbee3014e3e847ce1U,
  0xbea2a1873e8e1620U, 0xbd490d97bdfa5f12U, 0x3e8e20b4be106b4bU, 0xbe6037d53e069accU,
  0xbe96e4733e8331a9U, 0xbd1a52ce3d0dbe45U, 0x3eafdbfabdf87e3cU, 0xbf21b31bbd5e8549U,
  0x3cbab0493eacd69aU, 0xbe1216b53e03f51aU, 0x3e815cdc3bbbab98U, 0xbe12da18be296e53U,
  0x3e5f6eb93ea3d9e6U, 0xbd24b0783e8dbc9eU, 0x3e83b6d9bda7f960U, 0x3c531e03bd5410a5U,
  0x3e5a159f3da3042aU, 0x3e103ae93e8179c8U, 0x3db051e9bde20dd3U, 0xbde50a58bddfe5f5U,
  0x3c0d84dbbe6125caU, 0xbd3ccbaa3eb75ddaU, 0xbd0804d1bda54148U, 0x3d292938be321abeU,
  0x3e771ed5be7a2b4bU, 0xbd133e503e34a0d1U, 0x3e988c203e204d1aU, 0x3ea8e3213daef1a5U,
  0x3c8b44553e62418aU, 0x3e53f55c3dc28afaU, 0x3d4a929b3dc1956eU, 0x3e7ef1cf3e31f9e0U,
  0xbeefba7d3eb9f964U, 0x3cb2c27bbe0631f9U, 0xbdfa8ae6bda89c10U, 0xbd8eca1ebe5bab83U,
  0xbdca48edbe19135aU, 0x3dc11f69bd9efac3U, 0xbd3d00c6bdb92e05U, 0x3e6b3b1f3e410914U,
  0x3d0fef913df4b792U, 0x3e2db84abd61e343U, 0xbe2f9353be46278aU, 0xbf0ca30c3e8f99d2U,
  0xbd7972b5bd7e6927U, 0x3e15a2debd4e4102U, 0xbdf04a4d3982c4a5U, 0xbf1a6de63cb0f8afU,
  0xbb5fe022bcf79a0dU, 0xbd3b18183e18eb94U, 0xbe98eb3f3d9115c8U, 0x3e09c75c3e45b22aU,
  0x3e24ec6f3cb161efU, 0x3df23b66bd3e9065U, 0xbe8158b83dbb7303U, 0x3e332be73e4e5b71U,
  0xbe9efb733c39c32aU, 0xbce0ec4abe711fd5U, 0xbe1848ad3e39b3c3U, 0x3db4377c3dc842a9U,
  0xbef456fcbd999f40U, 0xbe8f0d65be43b2b5U, 0xbdba6c8a3e531500U, 0x3e35b27b3bba95b8U,
  0xbeeef2c6bc05ccb6U, 0xbe45604c3de81e70U, 0xbde4444b3e42a41bU, 0x3d953344bb9240f5U,
  0xbd5412d63d5d1c7cU, 0xbec2e92a3e1ab5b2U, 0xbdca90c4bdda0426U, 0x3e6744e1be921b5dU,
  0x3e5fb53e3d86354aU, 0x3cbe5d2abe7532e6U, 0x3ea22a15be0e7587U, 0xbbd7e5f9be01a58fU,
  0xbd84d8d4bdd81d7dU, 0x3e9157ca3eb212d3U, 0xbe04b7a8be4ca056U, 0xbe7496be3ec10776U,
  0x3dc31cbdbcf0f977U, 0xbc71193b3ea13625U, 0xbb22a0c8be688d40U, 0xbd86e3ae3e5a1291U,
  0x3e1291fcbec5fa76U, 0x3c54cad23e62627eU, 0xbe19d4d0be3e525aU, 0xbb23a34e3d5bd617U,
  0xbe3e0bd3be94e0f8U, 0xbd7c10ef3da5c5ccU, 0x3d8bbc58be145ab9U, 0xbd5014febc10052dU,
  0xbe3c0d2cbef34e00U, 0x3c4775943e2066d8U, 0xbf1c43dc3e418dd2U, 0x3b1fb7f83d257000U,
  0xbe660b6dbc52f3acU, 0xbd964580bea9b06cU, 0xbe3a34ae3e7093d0U, 0xbdf9dab9be2a83a1U,
  0xbb8777d1be06e5a5U, 0xbe36ce46bdd2e108U, 0xbe8bc33f3d998e71U, 0xbdab5607bf1d7f07U,
  0x3e59e61bbd8fa635U, 0xbe2463a0bebd8638U, 0xbebcbf833dfc0043U, 0xbec5b4f6bf01dddcU,
  0x3d5ba23a3dadb651U, 0x3e16a6d3be6d52f6U, 0xbd68df463ce267c4U, 0xbe495b8bbe44e8dbU,
  0x3ea950313e208431U, 0x3e09bd6fbe7ed0b1U, 0xbe8a52ed3e9b6bb7U, 0x3dbca8b3bec36febU,
  0x3d14153f3e26d381U, 0xbd89ade4bc81002cU, 0x3ceb803d3e4585abU, 0x3cc711f4be9d9e79U,
  0xbe901ad8be5da53fU, 0xbe80cbd33e7b7450U, 0x3e70cbb33e3885d7U, 0xbbb901be3ca5b354U,
  0x3edfb89e3dd280d6U, 0xbe957008bde911f3U, 0xbc24c48ebeb15844U, 0x3f22ff1cbe16278fU,
  0x3e681dfbbe0a7ac2U, 0x3e1493be3dc81276U, 0xbe1bd9e4bdc04d59U, 0x3de7270d3b787244U,
  0x3c01fc4abdfa8b9dU, 0xbd89ff86be0f7516U, 0x3c93354c3e82c0c2U, 0x3e6df445bd3034ccU,
  0xbded7f0abbc5bb7bU, 0xbdec00f0b9d33a64U, 0x3de25e4fbe51e168U, 0x3e30045dbd95a155U,
  0xbd4a1ee7bd9022cdU, 0xbdd125b1bce390b3U, 0x3e6ef3e73ec8ec08U, 0xbea94845be4d8c9fU,
  0xbeec0b81bdbe6985U, 0x3e4ec947bd4868e4U, 0x3e1977a6bd1cfa5bU, 0xbec1a618bcb781b2U,
  0xbf015e1abd9c757fU, 0x3b7dad74bdd1205eU, 0x3e48a1b13eb0625aU, 0xbda2ffdfbea27adbU,
  0xbebb95efbde8262eU, 0xbbb37bb5be524d73U, 0xbdb6cee73e49cd81U, 0xbe034d3abe7823d9U,
  0xbebd42adbe81646aU, 0x3da9309fbe1c9afcU, 0x3e8661153e927aedU, 0xbece591e3c8687e8U,
  0x3d647541bc8a875cU, 0xbe933f633e4f510fU, 0x3da494893e12924dU, 0xbdbd7454be14d58bU,
  0xbea59fa83cd917cdU, 0xbd60fd883ddab3bfU, 0x3dad56b73d367d50U, 0x3e9bac94beb9d92eU,
  0xbe3a94d13eb94272U, 0x3e711b263e94578fU, 0xbe91ba44bd935f3eU, 0x3d7ab352be1059bcU,
  0xbe6736973dab8c3bU, 0xbd2eeedd3eaf5532U, 0x3dea50843d0a6ee7U, 0x3eb27eb33dec4a95U,
  0x3f01886a3ede7cd6U, 0x3e80da863df2b225U, 0x3c2fcadebe304647U, 0xbea2f7dc3d90b2c5U,
  0xbe0322d9bca4ef3aU, 0x3c9fa8073e756dc4U, 0xbe5320aebf0929c7U, 0xbc6f10cb3e926f9cU,
  0x3f79444c3e117ea7U, 0x3d803d4abea800b6U, 0xbe2b037dbd9a8a53U, 0xbd4611733ef1083eU,
  0x3d315d5d3d0e4595U, 0xbf0df77ebe54cd19U, 0x3e8fdb6fbdb68540U, 0x3e0c1d793c81a060U,
  0xbd004168beb8ca10U, 0xbf32cd793dcc0793U, 0xbe015caebe3f9542U, 0xbef08930bca864bdU,
  0xbe13c803be5dc6c2U, 0x3c55178abdecbe03U, 0x3e04e5673dc86b7aU, 0xbeb1d9e9be4143a0U,
  0xbf170f8cbe0d5d5aU, 0x3e9bec7ebe4d2b40U, 0xbe0bbc2e3d0e5bb8U, 0x3cb1f880bed939f2U,
  0xbe6e82923cffd6adU, 0x3e8738a2bdd42cd4U, 0xbe43df943dbde146U, 0x3db2ec71bf16ede1U,
  0xbe3a88363dfb8465U, 0x3f018f543c9ff118U, 0x3d7d073fbe564bbbU, 0x3e8da334bec4149aU,
  0x3c962ec03e66beacU, 0xbd0ba6f5bde13b06U, 0xbe3c0d673e14bbecU, 0x3f123c07beb5192eU,
  0x3d99dc4dbc8a9e54U, 0xbdaf4694bf4450e2U, 0x3e2aaffebe8706cdU, 0xbd341e0e3d818289U,
  0x3ce3d5203ce06e97U, 0x3e4f4a9abece7a1eU, 0x3e02b293be2d666bU, 0xbc78fba83db3465eU,
  0xbe11b83e3e1b4115U, 0x3e4172adbd99bdfeU, 0x3e1138383bdb9c17U, 0x3d24f5d53d3fae8eU,
  0xbe14cac03cef4da2U, 0x3eaf41b93e336aa4U, 0x3dac03123cba106bU, 0xbca43ebf3dc45dc0U,
  0xbe21eb993d048cb2U, 0x3e720cad3eb575b8U, 0x3dd4f6763c4a430eU, 0xbd8e28473d9f8c70U,
  0xbd63cdc8bd774105U, 0x3e93655e3e8841e9U, 0x3d9778813cf5c4a1U, 0xbd7e5bd43dfb39f5U,
  0x3a2109c8bdfd437cU, 0x3e7cff6c3ea693fcU, 0x3d08172a3c15de12U, 0xbdd797593d9e3a2fU,
  0x3d4278d4bc623bb0U, 0x3e9ba8c53e835c16U, 0xbd7409b63d3daaa1U, 0xbe20743f3dc68afbU,
  0x3d08658dbd71d8e2U, 0x3e60ea623e360317U, 0xbe5125113de73cbcU, 0xbe2e2eb6bd8f0b1eU,
  0xbdd6e4243d811ab8U, 0x3e1dcecb3e29a8b1U, 0xbeb275103e329b5cU, 0xbdfce90f3c83160cU,
  0xbd07c9adb97c3d78U, 0x3df054b03dae0ca6U, 0xbe4972bd3e439510U, 0xbe681121be48a56fU,
  0xbd573d553da83eb3U, 0xbe0185f8bdaf9d63U, 0xbdf609a33eaf445aU, 0xbe6acd18bc8beb5bU,
  0xbea15f15be93ea54U, 0x3cf3f4c1bdaaef92U, 0xbf38c7f83e957115U, 0x3c4506c23e46fe43U,
  0xbe993f58bdafa283U, 0x3e8fc27cbd06b89eU, 0xbf1700f03d2b81bfU, 0xba9822103db3f7f1U,
  0xbe860fdabd88d5e9U, 0x3e83695abdee0cf4U, 0xbeed97ef3dd497d2U, 0x3d1b8d6d3e304df6U,
  0xbdd13192bda1b936U, 0x3e044e01be2cd0aeU, 0xbec527e33d843917U, 0x3e149ff13e2a642bU,
  0xbdeeeec8bc641915U, 0x3cd80acfbe505f39U, 0xbe9505b3bd70fb65U, 0x3e8195a43dcda6c5U,
  0xbd7ea2853d948a67U, 0x3d258ca0bddde24fU, 0xbe862881bd21243eU, 0x3db843dabc4b08b8U,
  0xbd92b64f3e72a41cU, 0x3e601bde3d38ae0dU, 0xbe50b4433d481b49U, 0x3dfdc7ebbd644cfdU,
  0x3d66c9a33e7c4ea3U, 0x3e95cb4b3d264ff7U, 0xbe316dd03dd37963U, 0x3c042ca5be31cdfcU,
  0xbd6412a03e55488cU, 0x3d647c5ebd807882U, 0xbdc46e863e16a3d4U, 0xbd14734ebe7ef506U,
  0xbd028fb63e0476c7U, 0x3e15d46c3d988bd0U, 0xbd07db583e1f67c1U, 0x3c21c11dbebb3d3bU,
  0xbe24d4223dc87e31U, 0x3db58ab83e1628a5U, 0x3daab92abe1ea42fU, 0xbe12efd0becfa2bfU,
  0xbd945b51bdae2d50U, 0x3d9a826b3e27ed23U, 0x3e1e24653eba8ac7U, 0xbeb7cd0ebde69e3dU,
  0xbf1c84303e159c52U, 0x3cc2ef1a3e5a0002U, 0xbea5b260bea22895U, 0xbec68fa43dbfe102U,
  0xbe8c300d3d1f2e09U, 0x3e4fb4443dcf280aU, 0x3decb1fcbe1a0c97U, 0xbf0473fe3da66272U,
  0xbea04783bd905198U, 0x3e4c3cb83c97455bU, 0xbe2ee446be3d62f2U, 0xbf1bda403e014b6bU,
  0xbe3c1867be0477bbU, 0x3e1be4123da93763U, 0xbe81a352bc41f5b1U, 0xbe7614e13e65941cU,
  0xbe736b05bea79cdcU, 0x3d88e8d03e55ba6bU, 0xbe6daa18be6cbbf2U, 0xbd9e83e73e2b208eU,
  0xbe492abdbe58115dU, 0x3da0c9b6bd7ca0afU, 0xbe376579bd67c9c9U, 0x3ec59f263e4229fbU,
  0xbcbcb003be0ea971U, 0x3cb8342fbe110f4bU, 0xbd4f466d3dfddd38U, 0x3e8afd5abe16c83fU,
  0xbdc992b1be38fe53U, 0xbd28eb79bccab116U, 0x3df33b3f3e769c7fU, 0x3edc2274beb66756U,
  0x3e86daf13b81f03eU, 0x3de80283be804572U, 0x3d455bb13d48ccc1U, 0x3eb78306beb8af09U,
  0x3e324265bd8f6262U, 0x3d76d6b1bd8c646aU, 0x3d3d55513e32a2b5U, 0x3ec9b9ddbea8f626U,
  0x3e2ed32bbe4c13dcU, 0x3d6728323cd9f2ecU, 0x3d5f8c193e1c3dd0U, 0x3eb16bf5bea2be13U,
  0x3dbede71be254761U, 0x3deceb543cf09e33U, 0x3e91a0513dce7137U, 0x3cfdb2e8be9e260fU,
  0x3e1b7246be917c59U, 0x3e98f88c3e30c65aU, 0xbe6aa6c9bec15e7fU, 0xbe8c5b86bd96cb4cU,
  0x3dbee425be3e074dU, 0x3d54ef283e12b786U, 0x3d02f70fbd74232fU, 0xbe35cac4be942905U,
  0x3e3b8fbcbe7fbdcdU, 0x3e5551573dd7e860U, 0xbdaef3d3be6a4adaU, 0xbc82612dbecca688U,
  0x3e193420be83146fU, 0xbdbe81b33dcdcdb6U, 0xbcb8e6afbe18c9ddU, 0xbecfea5ebe0396f9U,
  0xbdd92127bed9ccc7U, 0xbb5def28be0f42a0U, 0x3c413701be9db7d8U, 0xbe772fa4bea2030cU,
  0xbe1d8878be832768U, 0x3e4a08533ae0dfa4U, 0x3dfeb0cebd6541ffU, 0xbed96cefbe1fdeceU,
  0x3cde4c4fbdeba26eU, 0x3df64c51bdc507f5U, 0x3e6a4109bdcf82cbU, 0xbec201cbbe3c69b6U,
  0x3bac00c93ca620e6U, 0x3e0e2d83be5a2943U, 0x3e21a4293e3cfeddU, 0xbd0c3a11be6b3ee5U,
  0xbe2342593d0cb61fU, 0x3e84b295be1fea66U, 0x3e8f159fbe0bd7f6U, 0xbd8e3806bec5c6a9U,
  0xbdd891d13dbb8b61U, 0x3dadabb83d6c83bbU, 0x3eaee1253dc51d2fU, 0x3dc9ee80beb2976eU,
  0x3e52e9dc3d082e4fU, 0x3d2b338b3e48c10dU, 0x3eb3e7c83de47280U, 0xbb3074fcbee025f1U,
  0x3e027184be83ea6aU, 0xbe068ec13e1545deU, 0x3dd5609a3e93156bU, 0x3d81ca44bea26d04U,
  0x3e772ac8be5ec7bbU, 0xbba0aa8c3e937a6eU, 0x3d8a48c2bf4cd4abU, 0xbeb8a307bdfb330cU,
  0x3ed35d65b9c1f950U, 0x3e15013c3e2d47bbU, 0x3e5c415cbe666a02U, 0x3cbf8af9bd4db9b4U,
  0x3efe758dbe0b3a20U, 0x3dd66d1d3d9ce479U, 0xbe172973bd81a108U, 0xbecf7fd4be337409U,
  0x3df3ceea3e59e7a8U, 0x3e4286cd3c2597a3U, 0xbe5f672f3bb18211U, 0xbed5dea6bd1b284fU,
  0x3e5baef2bdb9e9b4U, 0x3da51b523d764d1dU, 0xbed393b6bdb9e3deU, 0xbeab20f23d64fa87U,
  0x3e4d94d1be863f73U, 0x3e2882d6bd444e77U, 0x3cf805063defa3ebU, 0xbeb67a75be20bb29U,
  0x3d6a4e1bbe2c16b7U, 0x3dcb2dd8bd0d75e5U, 0xbcc09aa93d97f3efU, 0xbee08ef13e48451bU,
  0xbe7773913e19385bU, 0x3e01ba3bbd710a31U, 0xbc0b08f43d98c608U, 0xbe80bbd93cdb8b3dU,
  0xbc448c313d8410d0U, 0xbd4f2e5e3b83ac2eU, 0x3aac1fba3d04778dU, 0xbe91991bbe4eb9e6U,
  0xbee37993bd1673e6U, 0xbe1b55343de71dc6U, 0x3de2eaef3e78ba04U, 0x3e03d81abdf16b1fU,
  0xbed35284bcbf6c00U, 0xbe0a3f43bd40a284U, 0x3de465dd3c8af5b9U, 0xbd080dafbe8bd94aU,
  0xbf0b5feb3c6090f0U, 0xbec924fabc4a218bU, 0x3ef891283dfe25b7U, 0x3f10bd8ebeb48ae6U,
  0x3e80e8e4bde78af0U, 0x3ea325e83eaa4893U, 0xbdf3fd1dbe9bde1cU, 0x3f053623bd2ff882U,
  0x3e8f61cd3d82569dU, 0x3e6be9bc3e19adfdU, 0xbe4c84ffbe682965U, 0x3e43c9ebbe68db5aU,
  0x3e8a1672bd4de18bU, 0x3d7352ee3e1b11dfU, 0xbccceaa1be6da3ddU, 0x3d39fd95bee86540U,
  0x3e4285283cd925a2U, 0xbe4295683c8fb936U, 0xbdd2dacabe2f6a11U, 0xbe4c664cbcbf2f2dU,
  0x3e8d9340bf154f2aU, 0x3dc33af6be252861U, 0xbe490f82be5a3634U, 0xbed115bbbd5950deU,
  0x3e622067bed65567U, 0x3d55f6063d9c4afcU, 0xbd8d72293dc3a21eU, 0xbefe16d23e481e85U,
  0xbdcda3b4bed608e4U, 0x3e209c3cbe380a71U, 0xbe84c2c53d501a45U, 0xbe8aac513e89b6caU,
  0xbe6148e4bed6dba7U, 0x3dc791cdbe6be98fU, 0x3d1d309cbda8fbd6U, 0xbe33cf9d3e268267U,
  0xbe57a369beb2a530U, 0xbe1fb80bbe13fe15U, 0x3cba3f993e82551bU, 0xbdc07ee83e56c2aeU,
  0xbe297741beaf3ff0U, 0x3d9ec034bd95bad5U, 0xbe003eb23e365977U, 0x3cf784d2bdd4dd8dU,
  0xbdf2c5acbe9710efU, 0x3cfb96213e24a33fU, 0xbdc94e4e3e1912adU, 0x3ea15954bd83b036U,
  0xbd2e2d3cbf1bcdfaU, 0xbd6dab86be26cf26U, 0xbd399bf53e8e8326U, 0x3e7e3009be1525f4U,
  0x3e2fc035bd7591d9U, 0x3d4b5c483e27ae7eU, 0x3d0d6992bdd0fb9dU, 0xbe5d584dbdb75e51U,
  0x3da28a313d913771U, 0x3e4e123bbd0e8984U, 0x3cdff6553cd12b1aU, 0x3d347542bb6c84caU,
  0xbe8580c43e336d7bU, 0x3e00cc58bd2eca13U, 0xbe01016e3d2c8a35U, 0xbbefdc163cc783efU,
  0xbed4b54f3db53b36U, 0xbda6e5e43d5c60b2U, 0xbd0290103daa4b25U, 0x3d8065113dbc87d4U,
  0xbef5c7ed3d617012U, 0xbeaaec323de008f4U, 0x3dcde77b3d5c1ea1U, 0xbd6407133db7f182U,
  0xbe9334e7bdbc44c2U, 0xbe630532bd8a98ffU, 0xbc7a65aa3b9cbe06U, 0x3c76ee69bc2f0853U,
  0xbc236d04bdf24981U, 0xbdd73be3bd481d99U, 0x3e12180ebcba0592U, 0x3d07d43abe022b98U,
  0x3dc9623bbe4fcc74U, 0x3e5c077dbeb0736fU, 0x3e05cd4b3aa229d1U, 0xbd123a1fbebd9624U,
  0x3de7ee0abe304ff3U, 0x3ecd70f0bf0379fbU, 0x3d173ff8be49567dU, 0xbe714f8ebe40d53dU,
  0x3e18cf77bdc5cdb4U, 0x3e88180dbedcf872U, 0xbd681923be293069U, 0xbe3ce2793ccfba1dU,
  0x3d7c405abccf9bb8U, 0x3e328f26beaef7a8U, 0xbd13e0a7bd0c2968U, 0xbee56ae23e12b8beU,
  0xbe8c89cabdbfb4efU, 0x3e02a795be95e09fU, 0xbc15dbf9bc403890U, 0xbe4b98133e91781aU,
  0xbe0edf23bd773020U, 0x3ebf4e683e1fc303U, 0xbe14a6403de109f5U, 0xbebe4c66bd0b19a4U,
  0xbd59aae73a98dbb0U, 0xbea83e2d3dff15e6U, 0xbe2b65c3bc9259b0U, 0xbd9dc74cbdee9b79U,
  0x3deb6eb7bd0465a7U, 0xbe98e59fbbff3f9fU, 0x3b7257e5be242c2cU, 0xbd7e4d52be227429U,
  0x3ddfe36abc498107U, 0x3c99d9893c828978U, 0xbd49fcbd3e157c78U, 0xbdf4a8e2be3df97cU,
  0x3e503aae3c0a8c51U, 0x3dafc09cbe8e3b58U, 0xbdee431dbe15efb7U, 0xbe50a833be3cc36bU,
  0x3e8512a63d0370c4U, 0x3e6f484fbddfbfe3U, 0x3d131b65be4e7aecU, 0xbc36e7273d12587dU,
  0x3e7276ffbd0a8c04U, 0x3e5c2f32be0d2ce6U, 0x3d6182033d001bbfU, 0x3c4ffd563e44c3c3U,
  0x3eb51b6d3d8896a8U, 0x3df68ac6bdb3f2bdU, 0x3e0814a63d48c5bcU, 0xbe3b11733e6d43c1U,
  0x3dea3021bd953af0U, 0x3e944ff93b18756cU, 0x3e2cc7e8bdb7c5c5U, 0xbe4515f93e2bd5a8U,
  0xbe07b245bc9e53beU, 0x3d876466be45751eU, 0x3dd06c85be100e68U, 0xbe72d9b93ea261e7U,
  0xbd0449e8bdaef73cU, 0xbee7f126bc95286aU, 0x3d98aa04be02e219U, 0xbebcecb93e867fcdU,
  0x3c0099dabe945704U, 0xbed0494b3e1270a6U, 0xbc93f9aabcf4c694U, 0xbf09a41ebd8f0a38U,
  0x3e279c26bc93a9bfU, 0xbd6aa1f83e739632U, 0x3e2dc867be2685b6U, 0xbdca2bc8bd625c40U,
  0xbe323330bd822c00U, 0xbc2af9f43e008bebU, 0x3db35b7d3c92ec45U, 0xbdf98e213d22462eU,
  0x3d6093f3be3e6f34U, 0xbd7780fbbc9d7bf8U, 0xbdf2941e3c1f19dcU, 0x3e358137be470450U,
  0x3d8bcf02bd06d54fU, 0xbe0fa993bdd86c5dU, 0xbe4548ca3ce5b4e8U, 0x3e862fd83e7976e7U,
  0x3e41c0afbe5072feU, 0xbb6e8804be6a6e9bU, 0xbcc375ed3d8d9f58U, 0x3d6fe5b63cff56eaU,
  0x3e104ff5bd3fdffdU, 0xbd66a1bebc91c1fbU, 0x3e1a4fdcbe2880b4U, 0xbc54919fbde18598U,
  0x3e6342163dd18198U, 0x3e115aa13d6db533U, 0x3e907f4fbe6863e1U, 0xbe47e1d3bd673fb3U,
  0x3ee28560be7a3ef1U, 0x3e58ed6b3e2a8dfcU, 0x3e7580bcbdcab7f2U, 0xbcc9d86dbdee975fU,
  0x3ead8a36be89b086U, 0x3e7a35d03e81e763U, 0xbe1ec566bd70f774U, 0x3e3b5cd7be146560U,
  0xbd4df7c0bb914f6aU, 0x3e5b03653dcc04ecU, 0xbe6c0606bd3901c4U, 0x3a48fe66be4c2060U,
  0xbf0a8b893d6fc7b8U, 0xbd4a253f3d1d352cU, 0xbe5e3f563c59014dU, 0xbc22b5f8be227f69U,
  0xbe5edd403e0697efU, 0xbe8c3246bda70a1cU, 0x3de11b7cbe05a935U, 0x3ec9e66bbe650fa8U,
  0x3de13ca3beb5e8edU, 0xbc9ddc5a3d358106U, 0xbdfe6da4bdaa6d37U, 0xbc8fb028bdb4b665U,
  0xbd34fa78bdb3c2f9U, 0x3e06de7c3e05a638U, 0x3eb49804bcc5d42bU, 0xbdad50d4beaf967eU,
  0xbd85e5cbbcd59268U, 0xbe0f95953d1821e8U, 0x3c765fcd3d032670U, 0x3eb8fb853b278c12U,
  0x3e9ff3fc3e0f7cd2U, 0xbbb328e23e2eb6e8U, 0x3e2b7432be28293eU, 0x3e9c8652be9a544eU,
  0x3df228d4bcbed231U, 0x3d979e163e14198dU, 0x3c4fc553bdc5e3eaU, 0x3e11555bbeb125edU,
  0x3eb02d923e558b63U, 0x3e5c14ee3cba8294U, 0x3c8bc4493d343255U, 0x3e88a2e2be43b3e7U,
  0x3ef3acc2bd46f71fU, 0x3e3fbd07ba7bcb9fU, 0x3e2ec9783d627a0bU, 0x3ebeaad63df006eeU,
  0x3ebd2d2dbf08c992U, 0x3d6a96303dfe8565U, 0xbd686b113ce31a4fU, 0x3db0d889bdd96acbU,
  0xbd5b36e0beffd064U, 0x3e11734a3e35dbe7U, 0xbd5a05f23e38ea1cU, 0x3d9be3b8bcddccb0U,
  0xbe24ebbcbe6bd33aU, 0x3e0a6f123dcfd8a4U, 0xbe10e620be43ccb7U, 0xbe42523cbe240ad2U,
  0x3cf1335abf0c0f42U, 0x3dfaab373e1fc64fU, 0xbe9e11c4bea13889U, 0xbd3c6a46be975546U,
  0xba1d262abe83a1eeU, 0xbdfc9437bce55b82U, 0xbecdebccbea1c3deU, 0xbda3d2eabe09d919U,
  0xbde785cbbea66d8fU, 0x3e18c6013e8d72b6U, 0x3d061a163e233c1fU, 0xbcc89eccbea5a391U,
  0xbe9817a93d7eb81fU, 0x3e8959a73c2bd84bU, 0x3e05b695be0c00b0U, 0x3e458923be12fc47U,
  0xbe131eaf3d866398U, 0xbe080b683e589751U, 0xbe763efa3c4f2854U, 0x3e4cd9fd3da15273U,
  0xbd078f393e846684U, 0x3e42cb92bea3f9cfU, 0xbdd690a03e8db953U, 0x3de4bfc53b93e021U,
  0xbe5c20cfbe9395e1U, 0x3e8889a4bd240c1bU, 0xbecc08afbd6d5b10U, 0xbdfba412be2ddda5U,
  0x3eb9da55bee98243U, 0x3c9d6b2b3ec67915U, 0xbda5115dbe886facU, 0xbcef5d50be0fd584U,
  0x3ea8e910be318ed7U, 0x3ebbd6bc3e73895cU, 0xbee3b575be392820U, 0xbd97c5723db51bd1U,
  0x3f2af00ebd8f8643U, 0x3e3eec823e0e2561U, 0xbb0d424abd9937a8U, 0xbeaed40c3e406382U,
  0x3ebdeb48be76d67eU, 0x3e35aa483e4dd0b7U, 0xbd76d131bd9f27b6U, 0xbda7d404be12cb09U,
  0x3d610e8cbe009f87U, 0x3d15658abdc4845fU, 0x3df8bfb9be269081U, 0xbe6be4163d01acacU,
  0xbc56394bbe83b2b4U, 0xbc94abf33d9c37b0U, 0x3e68b152bdd45c9dU, 0xbe9fc33abe24af21U,
  0xbe37dbd8be03afbeU, 0xbe9fc3103dc972f1U, 0x3d8dba39be0935f5U, 0xbe6a5965be391dc5U,
  0xbe090052be0d7f7bU, 0xbd56927e3e90bcdeU, 0x3e5b2463be50b2b6U, 0x3e839106be8ca741U,
  0xbe963835be9488d2U, 0x3cd1cc1e3d5c2496U, 0x3e95bb8f3d3774f6U, 0x3e285d19be38e209U,
  0xbe2b4f823d587454U, 0x3eb1612b3eeebf63U, 0x3e9c0511be13b698U, 0xbeefb36d3b846d48U,
  0xbd977cd4be84a878U, 0x3e1aa280bd98e707U, 0xbce9cfbe3d5b2221U, 0xbc283902bdd468a3U,
  0x3e83422f3d7ee8d4U, 0x3e95ccc8bd0d7680U, 0x3d654057bc5d529bU, 0xbedd2a99bb000fcbU,
  0x3f0b1221bedced78U, 0x3d033318be7d7163U, 0xbdaffedd3b19be6dU, 0xbe8cf38bbdac587eU,
  0x3e7d3c8bbf3460e3U, 0x3dd3bbeebbc39e4dU, 0x3c5ac6b2bd02335cU, 0xbefd1e17bd5700e2U,
  0x3e80dcb7bef4674aU, 0x3eaea09abd50a825U, 0xbaa625123e8bf8cbU, 0xbdf8db24bd8a82a1U,
  0xbdbe8f9bbea16a61U, 0x3e115eee3e16cadfU, 0x3ed93c6abd1967c8U, 0xbdf528213c9a70a2U,
  0xbe04f5a63db5f0c0U, 0xbc0115fd3bb0b489U, 0x3ecda9ce3c83858bU, 0x3dfb150cbdb913a6U,
  0xbed21c7b3bd98845U, 0xbe5e4b4d3e1d7ae1U, 0x3ead1394bdc248a7U, 0xbe0a167dbe769665U,
  0xbf0ac654bd8bb134U, 0xbec5b0723ec3dc94U, 0x3ececda4bda5cbc9U, 0xbe56fb78be52e06eU,
  0x3e775ab0bd7f9c74U, 0x3c742fa3bcfc347dU, 0x3eb6d0993e3f5d82U, 0xbdd9cc433dcd322fU,
  0x3d32a0613d685c78U, 0xbe3d00eebe29aa11U, 0x3d8c98023e56696dU, 0xbce2bbd03b804a2eU,
  0x3d49fa663de1fe40U, 0x3cd1a914bec6dfd6U, 0x3e2022383de78a05U, 0xbccf056ebd8c1d8dU,
  0xbd094d353a5ba4e6U, 0x3e78b8c23dbf2e8cU, 0x3c8fb675be1bc607U, 0x3ce7e675bea5ec88U,
  0xbe08b6cb3cdc12beU, 0x3e14dfb03e21dcbeU, 0x3d84628abf6ccb67U, 0xbdea9a92bea48211U,
  0xbd54c0693c7e3d8bU, 0x3e73c04f3e54419cU, 0x3ce10ad6bf1d07fcU, 0xbf195197bea088e0U,
  0xbcd5025abde012e7U, 0x3e7dae293e19c0d0U, 0xbd3bc324bef7aba7U, 0xbf44d3b4be3f5b6cU,
  0xbc70f52abe3dd2dcU, 0x3e61fd8fbba3f227U, 0xbda689c6bf29de11U, 0xbe89e2bfbda882daU,
  0x3d20fb13bdea4d7bU, 0x3e351caa3d0960b5U, 0xbdb2d122bea4f605U, 0xbec22c82bc4e319cU,
  0xbd499db4be459937U, 0xbcdc982cbc1343bbU, 0xbe5598ebbe6885c5U, 0xbe555f0abcb49d4dU,
  0x3da022a1be36e841U, 0x3e46de01bdfaa9bfU, 0x3c9e056dbe54aef5U, 0xbe06b166bdf48e6cU,
  0x3cf281dbbd134e0eU, 0xbe5f2175bd054d8dU, 0xbd693446bce45005U, 0xbd9556f4bc6bacb1U,
  0x3d6bb1fabe90483dU, 0x3ccb9a6fbe396509U, 0x3ed304b33d57c627U, 0xbea96ee23d862c2dU,
  0x3d2ccb3cbe4a9b1bU, 0x3d3eeb34bd78ee7fU, 0x3e4b0099bd552cf2U, 0xbec23c593e9cc853U,
  0xbebc99f4be406ec1U, 0xbe22aaae3c6c5ff1U, 0x3e04c21fbeb180c1U, 0xbebfd73e3eb10d04U,
  0xbec30d31be79cb05U, 0xbebe38793dff82a3U, 0x3e1b3482be9ea668U, 0x3d9e78763e5f9bc8U,
  0x3ba93a78bec6bd73U, 0xbd9e9d1a3e800774U, 0x3e3e1c28be903b00U, 0x3dab9d3f3ec7da06U,
  0x3db3227cbea2dbf0U, 0x3e4762433ded1285U, 0x3d9fc80fbd484e89U, 0x3db01c683d818e2fU,
  0x3e344b86be4f80d6U, 0x3e4d5a4c3e3608a3U, 0xbe1e1cf2bd0455a8U, 0x3c44026ebe1f8838U,
  0x3ddd45c1be973119U, 0x3e10d82c3be1e8dfU, 0xbd981f563e02f534U, 0x3e9bc85bbe72e4a8U,
  0x3e5c1d2fbd25895aU, 0x3d18aefdbcd8ee3fU, 0xbe3843573ccda29fU, 0x3deb1dbabdf8e9ccU,
  0xbda4d0613dace5ecU, 0xbc269bc7bc3896acU, 0xbd2b1ba7bdae5117U, 0x3cb0b956bdbe6cb8U,
  0xbe5264a33db65798U, 0xbe239583be05fa2aU, 0xbdc9a5a43e4b64feU, 0xbcf49bdcbdc8ecc4U,
  0x3e3ef5f1be75fa42U, 0x3d15eb5abdd474dcU, 0xbe15579ebe07084cU, 0xbe247e823d47c79eU,
  0x3d944946beb14a3eU, 0x3d4046a6bc9b9929U, 0x3e1094c33e0a6f75U, 0xbdf93860bd9a5890U,
  0x3e07ce3a3db924b0U, 0x3d442f80be4344ffU, 0x3e2fbaae3e6b84c8U, 0x3e12417dbdfaf483U,
  0x3e33621fbc330195U, 0xbbbc04c53b8cd716U, 0xbe1eda1f3ddd34e2U, 0x3d019d1b3d82db0aU,
  0xbdd26b6c3dc13f38U, 0x3da41902beb1ae87U, 0xbf0849babd54430dU, 0x3e83dec03e8300f8U,
  0xbeb76a0f3edbb06cU, 0x3e52cea7bd8ba97cU, 0xbeeb809cbe3f015dU, 0x3e4685483e913ba6U,
  0xbe8752a53e0549d0U, 0x3ee50711bd3dc780U, 0xbe08c287bc8112b3U, 0x3daf12823e41246cU,
  0xbe1d9d393dbfc7e3U, 0x3ec805883e217bc9U, 0xbd81b9d03d45c7aeU, 0xbdd6afe93e761773U,
  0xbe1dab0d3d951492U, 0x3dd40e9f3dd06de3U, 0xbcd663ff3d067344U, 0xbead03fb3d360a73U,
  0xbc555f46be366593U, 0xbddbc1e13cfcb511U, 0xbd56a0533cf4887eU, 0xbeeea2d23e48e5a8U,
  0xbd8d76afbea09776U, 0xbd9f8843be02d0bfU, 0x3d5844a8be18558fU, 0xbd60baffbe1552f6U,
  0x3e6a7d57bcfed04dU, 0x3e5e06c83e72aa1eU, 0x3de3d1f5be2572c3U, 0x3e76bc07bc71e8e8U,
  0x3db697dcbe1e38c7U, 0xbd9df6203e92a47eU, 0x3d4a93acbed9cb4fU, 0xbc3a42f9bd0cf9e6U,
  0x3ead38c4bdd45505U, 0xbdad145fbd2fce91U, 0xbe94286ebc2eadcdU, 0xbf0b11a13e702dd7U,
  0xbece64ebbdfbdafcU, 0xbe5a9617bd6423c8U, 0xbe5da42f3d06ff38U, 0xbd2f63be3caa52d2U,
  0xbe4a7c92be06c437U, 0xbe461420be1bbe6eU, 0xbf032eb93d144e4aU, 0x3b8fd37fbd8dbc76U,
  0xbec54b72bd7ba152U, 0xbe69dd10bd125212U, 0xbe6b2222bdcb4f37U, 0xbd1041a73e2a043eU,
  0xbd4676003bbf3784U, 0x3e1994ef3d5ddbabU, 0xbeb434c03d6ccd1cU, 0x3ea96010bd47e27dU,
  0x3e4aa5373e6b6a8cU, 0x3cfca24a3e7ec1f1U, 0xbe29a4eb3b1da31cU, 0x3e2345113d370978U,
  0x3e2571cabe86721bU, 0x3e3384953d81d1b8U, 0x3dd788e5bd260852U, 0x3e9189adbd3da302U,
  0x3dee32cfbc59ec6aU, 0xbe0af8a63e608731U, 0x3c7d21633ca73801U, 0x3ea64f56be6f0060U,
  0x3e92e4b2bbb224dfU, 0x3c5811b83df01c1aU, 0xbe1294e539cb6e2eU, 0xbdea83c7be47ea3fU,
  0xba4975a8bd5905c3U, 0x3e424f543ea17fadU, 0xbdfcbae23d80cae1U, 0x3cff8c043ddbf84eU,
  0xbe8a00793e5d7e25U, 0x3dc99ca7be105002U, 0x3d9c03cb3ddc040aU, 0xbce89c193e80a27bU,
  0xbdb273923cbe3007U, 0xbe665d4a3d3c1a71U, 0xbea91342bea2acecU, 0xbe76b66bbea00781U,
  0xbcd37879bd4800ddU, 0xbec5ae5e3e89721dU, 0xbea3e92ebd568afdU, 0xbebb700cbd734734U,
  0xbb49c1713e56fa96U, 0xbe3206133e5368f9U, 0x3d8891263d86793eU, 0x3ed34d7e3c7d84daU,
  0xbeca22583e3d35e5U, 0xbe4f5b41be106264U, 0xbc61e25d3ddba418U, 0x3e9300d6bd686813U,
  0xbf2a0c5c3ece904eU, 0x3bfd557e3d40c77cU, 0x3e9094f83dba23d9U, 0x3ebcc3e33dbfa012U,
  0xbebf3ed83e2806f7U, 0x3eb21e73be6e8eb8U, 0x3df70a4dbf12b236U, 0x3ed128f53e916391U,
  0xbea63f7b3e0a8f30U, 0x3e46cabfbdf9a7a4U, 0xbdc2a59f3d83e094U, 0x3eb6796cbd0f890fU,
  0x3e88e8e63d9a4f96U, 0x3eca58bb3d971331U, 0x3db20af13c20362cU, 0x3e635dfdbe6bf9abU,
  0xbe0fd34fbe9bfce0U, 0x3ec0dcb5bf0403f7U, 0xbe2a8b7d3e73d7d9U, 0xbd8e97eebcb8b26aU,
  0x3e915b06be5ab6cfU, 0x3c4d23c0bc7ab8e3U, 0xbe0ce392bd9635e2U, 0x3d25f39d3d9a820fU,
  0xbd8f0c443dbe1987U, 0x3e0290cb3e0343fbU, 0xbd4787ca3e86a3e2U, 0xbea8d3cb3d0092d8U,
  0x3ca3021f3c09abafU, 0xbe616d38be3cea54U, 0x3e3e5182be0490aaU, 0xbe210337bc6fa90aU,
  0x3f04d7c5be80b5f1U, 0xbdaea683bebdf34fU, 0x3e957798be130115U, 0xbcc701c6bf01bb00U,
  0x3e4f2a6d3e59de55U, 0x3e2b86023e10b791U, 0x3d00eb073d78823dU, 0x3e7d73493dfe241dU,
  0xbbe46af73e3b0aadU, 0x3db0add6bef102fbU, 0xbe0818b23dbcf721U, 0x3e6e09f4bf062943U,
  0xbd8e9456be6ba589U, 0xbbd1ce543a5961d8U, 0x3ef85b723e110b99U, 0x3e3600a2be1c97fbU,
  0xbe9a8113bddc2104U, 0x3dca7b603db89c0fU, 0x3eb02c433c0de9b3U, 0x3d58b1b9beea3ce5U,
  0xbf05d4d7bdce28beU, 0x3df5f5883d903508U, 0x3eac7d833db93445U, 0x3e397a6bbe931e0bU,
  0x3b8726e9bcd91ae0U, 0x3dc789ff3e4a228cU, 0x3e73ccc3bce934a7U, 0x3c94ae1fbec25fc8U,
  0xbf429525bdabba15U, 0x3e49218d3e874a52U, 0xbcdf3cd03e30cb23U, 0x3cdae0b6be336758U,
  0xbe82550dbdf4a477U, 0x3d1599173e0b7471U, 0x3dcd3d863e11a174U, 0xbdb5bc44bc8a9df4U,
  0xbebaac993d6e7904U, 0xbe5f0c9abd2565c4U, 0xbdd0a648be82dbefU, 0xbe8c93313d099ccbU,
  0x3e152dcfbdbcc155U, 0xbda856ea3d6a53f5U, 0xbe8937a9bd10ff6bU, 0x3e2df51d3e380913U,
  0x3daebc20be983410U, 0x3daf5d1a3b165f13U, 0xbe2424bbbea229f3U, 0x3eebd7a13e1409fbU,
  0x3eb6cee7be54b555U, 0xbec27acfbe9cc3e4U, 0x3c2063febdc33b40U, 0xbd94c6693e687cb9U,
  0xbd38e0dbbc7512b1U, 0xbe096e7dbd8ee169U, 0xbea19d163e0e4d8eU, 0xbcd1e9bf3d9d0f17U,
  0x3d4df3eabdc9ce2dU, 0xbe9eb9bbbd0beda9U, 0xbebdedb13e0bea18U, 0x3d494f0cbc80bc02U,
  0x3c65b7e1bd535b1cU, 0xbef415f1be0d295eU, 0xbe4b02063dd738dfU, 0x3d140788bc5d8a19U,
  0xbcab95cdbde1dca9U, 0xbf83c17bbd8bde7aU, 0xbe45c96f3d97c630U, 0x3c72041fbd5b47a1U,
  0x3d2d0e64be280bdbU, 0xbf814748be1d2f27U, 0xbe3c607b3da86d1cU, 0x3cb58eadbe32b050U,
  0x3ce37b16be33f0d1U, 0xbf552db5bd48c99aU, 0x3caf26a33db8243dU, 0xbda7a386bf039d7fU,
  0x3c9872e9be52fc0fU, 0xbee5098e3dcbd592U, 0x3d4e25cfbdb59ea2U, 0xbed1520dbf0cca84U,
  0x3d8563cebe1f5001U, 0xbd87ea29bc891c93U, 0x3d7871bfbf8eac9eU, 0xbf9990e3bedac4ecU,
  0x3de39865bd5c3cc8U, 0xbd032c873c91dc48U, 0x3d72eb9cbfac0881U, 0xbea6ab1ebe97280aU,
  0x3d99b7acbdabefd1U, 0x3d70b0803e55b95cU, 0xbd53d1febf9eab4aU, 0x3d815e3cbdf7c888U,
  0x3d8bc303bd8df76fU, 0x3e1a4cdf3d711667U, 0xbdecc128bf73f72cU, 0x3e105f4ebdb54909U,
  0xbd40abcdbdd4c424U, 0x3e7d497c3ddb7e3fU, 0xbea6a1c4bf0a4184U, 0xbe01fab13daa1e84U,
  0xbd9ff0dbbc747beeU, 0xbe5dd643bdb12f49U, 0xbe9ecb39bd68579bU, 0xbdefb0a83e92a9aeU,
  0x3cdda43abcdf7acbU, 0xbded68343e02cdf1U, 0x3df694913def2b3dU, 0xbe5627273ea436d7U,
  0xbd3dfb95be1da5c0U, 0xbe48cb10bdd33567U, 0x3d8039d23d392161U, 0xbe5717113d84dd7aU,
  0xbc9f5804bd7d70c8U, 0xbcb0ec8cbdd3fd6aU, 0x3e204dc0bc48e3bdU, 0xbe56a2d73e34e01eU,
  0x3c7b2c17be130f7eU, 0xbd3ad8a03decf19fU, 0x3be401e4bcf32196U, 0x3e42e0a53dda6aa5U,
  0x3d9aafbcbe4b162eU, 0x3d0a30d23e76b8a7U, 0xbc5023f53b577515U, 0x3e198be83b6ba16eU,
  0x3d8048babe3b33baU, 0x3d9774893eb5fc75U, 0xbe3e3786bc82ef68U, 0xbc68d53cbe80935cU,
  0xbd4f8f2ebdcaf093U, 0x3e664a593e59d68cU, 0xbe6326d93d5e4282U, 0x3d5b3d0ebdba289aU,
  0xbed246e73cc1dbc3U, 0x3cb7992a3e98647aU, 0xbe818c933cab5a7bU, 0xbca450973d712bc1U,
  0xbe1a2f563da24228U, 0x3db4bc323df76591U, 0xbea397c6bd007e35U, 0x3e29267bbe3b1f68U,
  0x3de42de63e395ed3U, 0x3c855fb63da75395U, 0xbe534be3bdd387e0U, 0xbd28495c3c3fbad8U,
  0xbe87e813bdf68e9cU, 0x3e9a6f76be574e5aU, 0xbe9d5694be03b4ebU, 0xbf007c07bd32cb7bU,
  0x3d660bd63b923124U, 0xbc0d1b89be12d08aU, 0x3d8f02d8bd1eb975U, 0x3e322d243e0ab2c1U,
  0xbe6d9c253e570be3U, 0x3d3dbfebbea92ba6U, 0x3e5f7349bd05d840U, 0x3e49cd31bd119fa4U,
  0xbd9ffe4a3e16da52U, 0x3d746810be0e4a34U, 0x3e1f24f33e00b712U, 0xbe669fa83e130929U,
  0x3b3b21b13d53182cU, 0xbd090a4dbf066207U, 0x3e83424e3d5ea0f0U, 0xbe5d6a453e0c3b5cU,
  0xbdb8501c3d0df54dU, 0x3e20b5f8bc9f2c05U, 0x3e75ea703d81120bU, 0xbe4921473e346b1fU,
  0x3e00bee4bdece963U, 0x3e1e2930bd7dabe3U, 0x3ec484073ebe7093U, 0x3a80f2133e2de2c6U,
  0x3e929261bd54d838U, 0x3d346a8c3e925eabU, 0x3e18e8c33cba6761U, 0xbe4629b23e935ccaU,
  0x3ebf31bfbe54cf40U, 0xbd9854323e8f7a16U, 0x3df169a73db8152bU, 0xbe023f4e3d7a0d2aU,
  0x3ee71372bda1a06dU, 0x3b63110a3e9cbfdcU, 0x3d9fb85a3dbcfcb4U, 0xbe2962303e30895bU,
  0xbde77096bc6793f3U, 0xbdc4c8873e31e610U, 0xbe5693ddbcbe451aU, 0xbe435e7ebea4579fU,
  0xbe65740d3db2e3e6U, 0x3e4bec74bd12aa79U, 0xbda8ee26bd9c9fc7U, 0x3c8ee9623d896ac6U,
  0xbc709ebbbc542470U, 0xbe489ba53d88a93cU, 0xbe17f2bbbf2c1813U, 0xbe1f2b6fbe4676bdU,
  0xbe34bfb7bd3139e3U, 0x3e936d83bd7aef0cU, 0x3da683753d47f10eU, 0x3df6e60a3c88b728U,
  0xbeace03cbee079f2U, 0xbe0c7974bcf0d879U, 0x3db62c06bddda0afU, 0x3e1e5130bd982020U,
  0xbe492effbaad2875U, 0x3e08baf1bdc0f9bdU, 0x3e935263be45e873U, 0xbe75afe33de968fdU,
  0x3d11a9563e09d5a6U, 0x3dbec544be4b48c2U, 0x3e5b86423cff1b8cU, 0x3ca2f3d63e2e2ec5U,
  0xbea6f386be5e551dU, 0x3e05cb87be637382U, 0x3e8d4fc33d80b598U, 0xbe84676e3e154958U,
  0xbec7e0b8bea0c2d9U, 0xbc83da70bd428d33U, 0x3e53689b3e8f1ff0U, 0xbdc5f5d23f02edf8U,
  0xbd254c05bd57fc90U, 0x3db1284d3c17aec9U, 0x3e220f4a3e8c5476U, 0x3d0dbeb23ec663baU,
  0x3e59dcf0bcf7f31aU, 0x3d52e5cb3d8e465cU, 0x3dcf5a443d864752U, 0xbe1463243e9f6467U,
  0xbeb9c86d3e505212U, 0xbafd0bf0bb370d99U, 0xbcc501d83cce570dU, 0x3e52f1793db7c0d6U,
  0xbe3b3fe33ce5ce5fU, 0x3e36ab643e6ba4e8U, 0xbda55ea33e0e7e55U, 0x3e7fe620bd4d2ba5U,
  0xbe23bd023e904aeaU, 0x3e501d9d3e022aefU, 0x3e3d312d3e58c443U, 0x3d8ca3d4be16d6f2U,
  0xbdeb8ffd3ebd8cd2U, 0x3e35ded7bc4b9f90U, 0xbde79576bdea3f9cU, 0x3e1fc22cbe33dae1U,
  0xbdfe4763be9c9617U, 0xbd385efb3a492396U, 0xbed26660be9134e6U, 0xbe8d4a53bdb32c8eU,
  0x3d7af42ebdfd34ddU, 0xbe90f30abd1f4b14U, 0xbab133babd5ca2efU, 0x3ed38b44bdd17ea6U,
  0xbe923efabde9b482U, 0x3dce550dbd2bc559U, 0xbdec15f9bc854576U, 0x3d679e8ebc806294U,
  0x3e2de3fd3d609dfaU, 0x3e1704d53e559828U, 0xbe64fbabbe44c7e4U, 0xbec331efbd617b12U,
  0xbcaecd7abe0899bcU, 0x3d49897bbd30a30eU, 0xbdc250b4bc841bbaU, 0x3c923f0bbe1caab5U,
  0x3ea5230ebe612dafU, 0x3e4f54773d0a6010U, 0xbe06863abd98f022U, 0xbe250d4b3e9f6a25U,
  0x3e9044173c83e471U, 0x3e37f0cdbe7c95c7U, 0xbdb538883c7cc741U, 0xbeae5dae3e8173e8U,
  0x3e0eacffbdc3f3a4U, 0x3d00d5c73c92d3eeU, 0xbda54b14be80de91U, 0x3d9f94d13df21728U,
  0x3d8b66033e09f4ccU, 0x3dacf9a0be520a8eU, 0xbcebff693e26ce31U, 0xbe0fa0693d194957U,
  0xbcb6191e3c743368U, 0x3e418b53beb41cddU, 0x3e7fb6193d779b47U, 0xbd934d0bbe6070eeU,
  0x3df6962d3d60b25eU, 0x3da4d1e7be06f363U, 0x3e89a09abe9bff22U, 0x3e59c05d3c89c4ebU,
  0x3e62e4c93ec18d6dU, 0x3dd91af0be891563U, 0x3dcfbd77bd2c9fceU, 0x3e512df3bdaef48fU,
  0x3ecb4c143df8aa64U, 0x3e23d8b83d2de771U, 0xbe7a253fbd26c122U, 0xbe76af533e78c64eU,
  0x3e8be1003ec6de8fU, 0x3d18afa43e5de1b0U, 0xbf0c248b3e72918bU, 0x3e8af837be26cbacU,
  0x3eba7e12be1d697bU, 0xbded6f3e3e0eba70U, 0xbe7d2a9a3e2dd11bU, 0xbe7dab833e9024d9U,
  0xbdb0ff71bdef3ed0U, 0x3ce663523ed78cbdU, 0xbec9904fbdf0c699U, 0xbe765a2b3e4681deU,
  0x3e59b710bdf2f784U, 0x3d9d3b523e7a169fU, 0xbeb9b9e1bdbcbd96U, 0xbe81e3373eb654e6U,
  0x3f14c64ebd91e560U, 0x3c1736893e02e13eU, 0xbf1f8ccf3ead483cU, 0xbf01c8703eac23f3U,
  0x3e4c9ceabdfa6e33U, 0x3e955af1bd0594caU, 0xbeb1aaf53bed0a35U, 0x3c7486a53e279e7aU,
